#version: 0.2
Ġ t
h e
Ġ a
i n
Ġ w
Ġt he
Ġ s
Ġ *
o u
r e
Ġ i
h a
Ġ o
h i
Ġ b
o t
Ġ m
Ġ c
e r
n d
Ġ d
Ġ f
Ġ y
o n
in g
Ġ p
l l
Ġt o
m ot
Ġ g
Ġy ou
a n
Ġ l
e d
e s
o r
e n
ha t
Ġa nd
Ġ n
c hi
a r
i t
a t
Ġ in
Ġo f
Ġ he
a s
o m
Ġi t
o w
' s
Ġ ha
l e
s t
v e
Ġo n
a y
e t
Ġt hat
Ġb e
r i
Ġ e
g h
Ġw e
s e
hi s
Ġ u
Ġi s
a l
i d
o o
l d
u t
i c
Ġw as
a d
Ġ k
Ġ re
a c
' t
Ġ h
Ġs t
v er
Ġ =
Ġt h
Ġf or
Ġd o
gh t
. .
i s
k e
r o
l y
en t
c h
a m
i r
i on
ou t
Ġ j
Ġa n
Ġm e
it h
Ġ "
e a
â Ģ
Ġl i
Ġw ith
Ġg o
Ġ [
he r
Ġs e
Ġa s
a nd
a ll
om e
Ġt his
u r
Ġa t
Ġn ot
Ġthe y
Ġw hat
ou ld
c e
Ġha ve
i ll
t er
Ġ r
Ġa re
Ġs he
Ġk n
Ġ hi
Ġs o
oo k
Ġ -
h o
Ġthe re
u st
i m
Ġ his
u n
an t
Ġn e
c t
u m
Ġon e
Ġc an
a in
Ġn o
Ġb ut
Ġd on
Ġhe r
Ġw he
i l
Ġf r
Ġa ll
Ġkn ow
Ġu p
a u
Ġyou r
x x
ea h
.. .
Ġm y
p p
Ġm o
Ġd e
Ġha d
g e
c k
Ġs a
u s
Ġa l
i e
ou r
e ll
a b
Ġli ke
ac k
Ġ out
in v
o p
Ġ ri
Ġ 1
Ġa b
t h
Ġp l
oo d
Ġhi m
Ġg et
o h
t he
r y
in k
re d
Ġs u
Ġfr om
a ke
' re
y ou
ar t
n o
Ġo r
er s
Ġ v
w hat
ver y
i g
o l
q u
Ġd id
Ġse e
ha n
i ght
u l
Ġb y
r a
at ion
Ġwe re
on e
ou nd
es s
Ġs p
es t
Ġc om
Ġb o
in d
am e
' m
Ġs h
Ġs ome
f at
Ġw hi
Ġthe m
ar d
Ġl ook
Ġi f
n a
Ġw or
on g
ow n
Ġj ust
e l
it t
Ġhe re
Ġg ot
a k
Ġab out
y eah
Ġthe n
re s
Ġth ink
as t
Ġwhe n
n t
all y
i f
Ġ 2
Ġ âĢ
Ġw ho
Ġn ow
Ġw ant
Ġm an
Ġc on
Ġsa id
i ve
Ġe x
' ll
o s
a p
Ġ (
] .
Ġw ould
Ġ ro
i st
Ġri ght
at e
e p
Ġan y
Ġw ill
Ġa r
Ġt w
b er
e m
Ġ Ġ
Ġt im
Ġu s
Ġc l
f e
ou gh
t hat
xx x
Ġt r
in e
Ġp ro
Ġs ay
k ay
v en
a re
or t
h ing
ĠâĢ ľ
Ġl e
Ġl o
Ġwe ll
ic e
âĢ Ŀ
a g
itt le
Ġin t
w e
Ġa g
Ġg ood
Ġd own
o re
ot her
. "
Ġl ittle
t her
ou s
Ġb r
Ġb ack
âĢ Ļ
Ġh ow
w ay
h y
Ġp ut
Ġc o
Ġp e
i es
Ġa f
Ġg r
au se
Ġa m
' ve
Ġgo ing
Ġf e
ic k
y es
Ġtim e
Ġc ould
Ġbe en
Ġo ver
Ġof f
Ġmo re
u h
Ġc ome
Ġb l
Ġha s
Ġthe ir
d y
Ġ qu
- -
Ġu n
Ġc hi
ac e
Ġ1 9
id e
s o
Ġ very
Ġwhi ch
Ġto o
l f
c ause
Ġ er
Ġ2 0
Ġ en
Ġtw o
it y
he re
Ġy eah
Ġo ther
m y
e nd
re e
Ġpl ay
Ġt han
Ġ '
Ġwhe re
ing s
Ġc ha
f t
Ġo h
u re
, "
o se
al k
Ġc ar
p e
Ġl et
re at
Ġs c
is h
a ge
ur n
or n
Ġ xxx
m ent
he d
e ar
om et
Ġp o
Ġm ar
p s
nd er
Ġint o
Ġf l
u d
i an
ou ght
t y
Ġag ain
op le
on na
Ġaf ter
d o
Ġw ay
b e
Ġf ir
as s
Ġpe ople
ad e
Ġs omet
Ġg onna
Ġdo es
u e
i a
Ġm ake
p l
u ck
i v
Ġt ake
b le
Ġwor k
Ġfir st
i re
Ġb et
Ġt ell
at er
Ġd ay
as e
Ġc all
Ġy es
it e
Ġs ha
ou nt
Ġp art
t e
is s
Ġe very
b o
Ġt e
in t
Ġm u
Ġa d
o kay
p er
ri ght
h m
Ġha nd
Ġ our
Ġme an
Ġthe se
Ġon ly
c o
Ġne ed
p t
Ġm ay
w n
u ll
Ġne w
se lf
ar y
c l
Ġg u
or d
Ġth r
f ore
ac t
Ġp r
w here
Ġf o
v ing
the re
Ġsh ould
f f
Ġbo y
re n
Ġc h
Ġbe cause
c i
ou se
Ġp re
Ġs m
Ġm r
Ġh o
Ġdid n
v ed
ac h
m p
d e
Ġb ig
d ay
au gh
Ġre ally
p ar
an ce
Ġmu ch
Ġsomet hing
an g
i z
ab le
res s
l es
Ġw hy
Ġm ade
Ġha pp
b ut
Ġa c
ad y
oo l
Ġy ear
at her
Ġl ong
w ell
t ing
n e
Ġd is
u b
Ġbe fore
Ġhe l
th ing
a v
m an
Ġg ir
Ġp er
a h
ĠĠ ĠĠ
i se
he s
Ġj o
Ġa way
Ġt alk
at ed
or y
Ġu nder
Ġo ld
e x
g et
Ġcom p
Ġw ent
an na
Ġgir l
i ed
Ġb u
Ġa ct
Ġha r
Ġo kay
Ġre m
Ġchi ld
ion s
Ġw r
' d
l ook
en ce
Ġne ver
w ard
Ġth ree
k s
Ġg reat
Ġa pp
Ġc ame
v es
i x
Ġe ven
Ġh ouse
Ġal so
Ġk e
Ġc r
Ġh ome
Ġth ose
Ġm om
g g
c an
Ġdo ing
Ġe l
Ġhe ad
Ġt urn
Ġman y
ri end
le t
t ain
at ch
f ul
Ġp le
? "
Ġth ought
Ġm in
ri ed
Ġl ea
Ġas k
Ġs l
u p
m a
Ġb ook
d s
Ġw anna
Ġe at
Ġb ab
0 0
Ġs er
Ġc ount
Ġg ive
Ġth ings
Ġth ing
Ġthr ough
Ġan other
Ġm ust
en s
or s
Ġst ill
Ġd r
Ġcom m
Ġf ind
ex p
on s
an s
Ġc he
Ġw a
Ġst art
Ġe ar
Ġ %
ak es
Ġhel p
c ome
Ġl ast
m o
Ġb it
Ġbe l
Ġg l
l augh
Ġst r
ad d
ic t
Ġcon t
l and
en ed
Ġw on
Ġf ound
n ow
y s
ar k
i ly
e ct
Ġc han
Ġre s
Ġs ho
Ġs ch
Ġcall ed
Ġsh ow
Ġm other
Ġb ot
. âĢĿ
Ġlo ve
Ġo p
ak ing
Ġn ight
at h
Ġit s
Ġdon e
Ġt ry
s s
Ġm ight
m m
i ous
Ġ20 1
Ġl ot
m s
l i
a il
Ġmo st
l ing
un n
a ir
Ġn ame
um my
x t
Ġis n
Ġu h
ig n
n g
Ġp ri
Ġd ad
Ġf riend
bo dy
s ide
at es
a w
Ġar ound
Ġbab y
Ġc are
u ally
Ġ â
al s
Ġd if
Ġm iss
o ck
an c
p le
Ġs w
Ġm on
Ġw ater
Ġsu re
. ]
Ġw ar
Ġo wn
Ġe nd
Ġc ol
Ġk ind
it ed
h uh
Ġwhi le
the y
Ġn or
Ġbet ter
b y
Ġer m
m hm
Ġd es
one y
Ġb re
t his
Ġp res
Ġf in
Ġke ep
Ġsch ool
Ġf our
Ġin d
Ġc our
, âĢĿ
Ġpl ace
n ot
Ġbe ing
em ber
Ġn ice
Ġsu ch
Ġli fe
an k
m e
Ġat t
h ow
l ed
Ġyear s
Ġus ed
re nt
Ġc ap
Ġfe el
Ġcha r
f or
ver s
t o
! "
Ġen g
Ġlook s
s he
Ġple ase
w w
Ġm at
m ed
way s
Ġf ar
i p
Ġf ather
t s
Ġany thing
Ġm a
Ġne xt
Ġdoes n
laugh s
Ġel se
Ġs ame
Ġbe g
b r
Ġsu pp
Ġb us
Ġwor ld
Ġro om
Ġp ol
in ce
Ġe le
Ġ 3
Ġ .
Ġs hi
Ġs et
Ġi mp
Ġg re
l o
out h
in n
Ġre p
g r
u g
ic al
Ġsa w
i ld
Ġc le
m er
or ry
Ġm en
Ġho ld
d er
b ab
a ve
Ġto ld
ut e
Ġle ft
Ġs it
ation s
u c
g o
Ġal ways
um p
er ic
t a
au ght
Ġw om
Ġwa it
w ho
pp ed
w hy
Ġwe e
ct ion
Ġse c
it ion
Ġt ri
Ġf am
d on
ar s
Ġb all
un g
Ġu se
Ġo b
ri s
Ġb ir
Ġre ad
Ġu nt
Ġe ver
Ġn um
r ow
Ġdif fe
ï ¿
ï¿ ½
in s
Ġ z
re st
e w
re am
le ep
os s
Ġac c
Ġp ers
Ġre c
Ġpre t
e ver
i o
Ġsp e
Ġpo int
ve l
Ġnot hing
ul t
Ġdo or
Ġtoo k
g er
Ġre g
Ġth ough
Ġs ur
Ġw alk
ou n
Ġs ing
Ġg one
Ġb ed
c c
ra w
Ġyou ng
he n
n ess
Ġam eric
Ġhar d
ent s
Ġd ist
Ġop en
Ġbo x
Ġre t
Ġen ough
Ġcom ing
s is
Ġli st
Ġre d
Ġthan k
Ġhe ar
Ġ _
co nd
Ġm ot
Ġf ive
Ġm oney
Ġ20 0
m ber
c ha
Ġgo es
Ġm orn
Ġsay s
Ġv o
Ġm il
Ġh ur
Ġto m
ll ow
Ġs k
Ġg en
Ġunt il
Ġs ide
Ġ ed
t on
Ġgo d
Ġli ght
Ġst and
Ġu m
Ġt hi
is hed
get her
Ġse cond
Ġre al
Ġm us
Ġt er
Ġe yes
Ġb est
Ġp ass
t ea
Ġb ro
Ġk ill
Ġon ce
Ġf ace
Ġs orry
Ļ ª
am p
Ġs y
Ġmorn ing
d ad
Ġc at
Ġin ter
Ġw ind
c es
ro ss
Ġqu ite
Ġc ity
Ġ ent
p o
Ġbel ie
Ġdo g
Ġa ir
Ġask ed
Ġs ix
" .
ri st
on t
Ġbot h
Ġst ay
Ġne ar
pe ct
Ġw o
Ġe v
Ġlook ing
Ġs ound
Ġf ire
Ġfo ot
Ġe ach
ow er
Ġhe y
Ġy et
ell ow
op e
Ġst e
Ġse en
Ġsm all
c le
Ġst op
Ġcour se
ist er
u nd
p ut
Ġp ick
Ġb ar
i le
Ġr ound
Ġi d
re t
Ġb ri
b ro
m ch
Ġso on
Ġdiffe rent
t en
Ġfe w
a z
as ed
Ġâ Ļª
Ġm m
Ġhand s
Ġto gether
Ġhi gh
an ge
Ġb ad
Ġd ri
i ble
Ġp ie
t le
Ġto day
Ġl ar
Ġf all
Ġw atch
Ġrem ember
Ġsha ll
Ġin st
Ġ hat
Ġchild ren
i b
Ġre l
un e
Ġin v
d id
u ff
i red
ea k
id ent
Ġlea ve
we en
ft a
i al
ation al
Ġs ir
ll o
Ġk ing
Ġbl ack
Ġwith out
Ġknow n
ur ing
Ġs leep
Ġup on
Ġget ting
Ġhe ard
as ter
Ġde ar
c al
Ġgr and
Ġc ent
e f
Ġm ind
Ġ20 2
Ġbet ween
Ġp ict
Ġp ar
Ġpers on
Ġdad dy
l ic
Ġfo llow
Ġr un
l ess
Ġp ap
s on
o g
Ġp at
Ġnum ber
Ġhim self
ct or
u res
Ġha fta
Ġtr ain
Ġre st
Ġl ater
) ,
m b
p h
Ġha lf
ri es
j ect
Ġm et
Ġha ving
Ġh or
an e
Ġmr s
Ġst ory
as on
) .
v ie
at ing
Ġde p
Ġ 4
Ġlook ed
i et
b all
Ġevery thing
Ġs ince
Ġcon s
unn y
a red
oh n
Ġt ra
Ġj ack
Ġ1 8
d d
et s
fe ct
Ġhapp ened
Ġmo ve
in a
in es
Ġwant ed
am es
Ġha ven
ul ar
mo st
Ġto p
Ġbe c
Ġwhi te
Ġfl o
Ġde c
Ġd ire
st and
g ma
it s
Ġmay be
ow s
i er
Ġan s
a ut
un t
Ġtalk ing
Ġs ort
c hed
se l
ter s
Ġhe art
Ġkn ew
Ġbl ue
er tain
a le
Ġal ong
en n
s h
Ġboy s
Ġan im
Ġre ady
ĠĠĠĠ ĠĠĠĠ
ent y
Ġm ummy
Ġli ve
Ġj u
Ġun ited
Ġs at
re w
Ġt able
Ġpret ty
Ġl a
Ġs we
Ġc ut
re ady
an n
et er
Ġas s
Ġp op
an y
Ġagain st
Ġday s
Ġsp o
Ġp h
? âĢĿ
v o
y e
Ġg ave
Ġameric an
us h
Ġm aking
Ġbre ak
Ġk id
Ġj ohn
Ġa p
Ġh our
Ġcha ir
os ed
ic s
Ġfam ily
Ġsu b
Ġto wn
st er
Ġco ll
Ġl and
s ha
Ġn at
Ġ19 9
ci al
Ġm ag
Ġex c
Ġbr ing
Ġpart y
Ġc ho
Ġd uring
g ed
Ġ 5
Ġch rist
c hes
âĢ Ķ
Ġs il
se e
Ġs on
if e
or k
Ġact ually
Ġthi r
Ġwas n
Ġh ot
as h
Ġad d
Ġbr other
ce pt
Ġgen er
Ġb orn
u al
Ġdr ink
Ġd ied
Ġst ates
" ,
Ġdo ll
Ġbelie ve
Ġs ong
Ġte am
Ġret urn
Ġno ise
ull y
re ad
in ess
us s
ur s
Ġsay ing
Ġs qu
Ġl augh
m ar
u ary
cl ud
Ġst ate
Ġgre en
Ġg i
ward s
ver n
Ġwho le
Ġs im
Ġf ood
g ood
c ed
Ġg er
is ion
Ġbu ild
Ġstart ed
Ġint e
t ed
e red
Ġwo nder
-- --
Ġmat ter
Ġmom ent
Ġg ame
ut h
z z
Ġt re
r u
ant s
bab ly
Ġha ir
Ġc up
Ġal most
Ġfriend s
Ġd ro
Ġnor th
ï¿½ ï¿½
Ġg e
Ġcl ose
Ġtry ing
it her
Ã ©
Ġme et
Ġwould n
Ġa h
Ġ es
Ġp ay
Ġqu est
Ġwom an
ou p
Ġe ight
i gh
Ġcom es
im es
Ġm ed
Ġe m
Ġflo or
ot s
Ġmus ic
Ġs ign
ust r
hi p
Ġwor d
Ġf ine
Ġle g
Ġfe et
om as
Ġinte rest
| |
or row
Ġplay ing
Ġtim es
c ess
Ġcount ry
Ġunder stand
j ust
ar n
Ġal ready
Ġsp eak
in ed
Ġp oss
y ing
Ġe as
Ġr a
Ġa w
Ġbo b
ak en
ac es
ill y
Ġp ull
Ġex p
d ing
Ġwr ong
Ġh uh
ke y
Ġbe aut
Ġbec ame
Ġjo b
Ġbeg an
Ġs ent
Ġt en
Ġp ain
Ġro ck
Ġb en
Ġle ad
j o
Ġh um
Ġmar k
Ġgirl s
Ġpro bably
k es
Ġcon f
Ġlist en
Ġbe ar
Ġcont in
Ġgo vern
un k
ie ld
ri c
r ing
h ind
Ġmin ute
e e
Ġb at
Ġhapp y
t han
und red
Ġlo st
â Į
Ġm id
Ġf act
Ġgu ess
Ġd raw
Ġc al
am a
chi ld
Ġf ull
Ġh undred
Ġt ou
c he
Ġqu ick
Ġad v
Ġf ight
ww w
Ġre f
Ġfr ont
ra p
Ġin clud
Ġh ope
g ot
Ġmom my
Ġf ore
Ġl ady
u es
ct ed
Ġ19 8
it al
Ġc ook
Ġpap er
Ġplay ed
iv es
ag es
Ġpict ure
Ġde ad
Ġvo ice
f ch
c er
w er
c y
Ġp ur
s ing
Ġgot ta
Ġc ertain
Ġrec ord
Ġc ur
n an
r on
Ġid ea
ent ly
Ġde ath
for m
Ġ 6
Ġoff ic
ou d
Ġbe hind
it ies
Ġpo or
Ġcol or
el t
iz e
Ġf un
ap e
Ġp u
Ġm akes
Ġs outh
Ġst o
the n
en se
! âĢĿ
Ġex t
Ġsh ort
Ġex pl
g y
be cause
at s
Ġbr ought
Ġcount y
Ġar t
au l
ĠâĢ ĵ
k en
Ġs um
Ġfor m
Ġare n
Ġb as
Ġst uff
he y
Ġcap tain
Ġturn ed
a pp
air s
s c
Ġs un
s p
on y
li ke
Ġmo vie
Ġpro d
u se
Ġv is
Ġsomet imes
Ġw ood
Ġm ic
ot h
Ġmean s
Ġsee med
Ġro ad
Ġc or
ent ion
l ish
Ġwee k
Ġf ro
Ġm ain
Ġn ational
i i
ur y
e en
1 9
Ġ 7
Ġm outh
Ġi m
Ġout side
Ġm er
et h
t w
Ġmon th
Ġst ick
Ġd ou
Ġof ten
ll y
Ġhow ever
Ġpro ble
un ch
m om
Ġun i
ha ps
Ġin c
es e
Ġ 8
Ġcould n
Ġc ry
ut es
Ġwant s
Ġs n
id ed
Ġre pl
Ġd ar
Ġhor se
u red
is ed
Ġhi st
Ġab le
Ġf if
Ġd i
b it
Ġon es
Ġl ate
ro om
ment s
Ġt aken
w hi
Ġser v
Ġl ine
if ul
Ġte le
he ad
Ġh on
Ġpie ce
Ġs ea
Ġw in
Ġt y
m ummy
Ġ19 7
d ge
Ġ ,
g an
than k
Ġf uck
Ġyour self
is es
Ġgu y
Ġwor ds
Ġl aw
Ġl ess
c ol
Ġimp ort
Ġd ark
Ġf ell
Ġm ine
Ġp ub
Ġst ud
inn er
Ġtr ans
Ġear ly
Ġs al
Ġlar ge
b ed
Ġbus iness
Ġt aking
el s
i k
Ġle arn
ard s
Ġst ar
dd en
Ġger man
Ġa ge
Ġt ill
Ġd a
e y
Ġdo ctor
Ġpro v
itt ing
Ġsome one
at ive
f ully
Ġd ress
i ent
ha ve
Ġan n
Ġwom en
p at
Ġb er
on es
Ġt ree
Ġin side
Ġmy self
Ġst re
Ġhapp en
by e
Ġc ir
Ġp ower
iz ed
Ġmin utes
Ġth omas
Ġcl ass
Ġr ather
m ore
sel ves
Ġco ld
Ġtw enty
Ġb ag
Ġw ife
z e
Ġm ill
c ar
Ġri ver
f l
Ġp age
Ġhi t
Ġc ase
Ġpr ot
m ing
Ġf elt
Ġre le
Ġr an
ad u
Ġde l
en g
pp ing
ne y
Ġswe et
a im
Ġm ad
b l
Ġtr ou
Ġre ac
n er
Ġ !
if ic
Ġf air
Ġs and
are nt
Ġm ess
Ġor der
aught er
Ġtr ue
Ġc amp
Ġpro f
au s
b orn
Ġstr ong
Ġar m
at or
Ġe ither
Ġgi ven
Ġbr own
Ġw all
Ġbeaut iful
Ġbir th
Ġgr oup
Ġother s
Ġ 9
im e
Ġs ister
um b
w hen
Ġp hi
Ġse ver
am ed
Ġo cc
Ġbo dy
Ġpres ent
Ġhur t
ang er
Ġchan ge
Ġto ys
Ġcomp any
Ġcle ar
Ġeng lish
Ġgr ound
Ġh ung
Ġm ount
Ġi ll
Ġc e
Ġf unny
er ing
Ġse ven
Ġal one
Ġwe ar
Ġj an
Ġag o
Ġbo at
Ġex am
Ġw h
Ġp ast
Ġpr om
Ġst ep
Ġper haps
ren ch
g in
Ġc orn
Ġsever al
Ġb ur
Ġ19 6
Ġp ot
Ġ ve
Ġf ast
id es
unn ing
Ġget s
Ġbl ood
Ġgo ld
d le
c om
Ġl ay
Ġac ross
sha ll
l s
Ġc ou
Ġare a
Ġimport ant
Ġmil k
Ġal right
Ġdist ri
do es
ot e
Ġgr ow
ep t
Ġdep art
Ġj e
Ġpl an
Ġf ree
Ġgu ys
Ġg un
Ġw ish
Ġv ill
Ġwork ing
Ġis land
Ġquest ion
Ġle ast
Ġf il
m in
f fe
Ġf av
Ġc reat
Ġn in
00 0
Ġthan ks
Ġ1 0
Ġw est
Ġde al
Ġpres ident
Ġc os
ian s
le y
it ing
ain ed
Ġd iv
g ra
Ġbu y
Ġc ried
Ġfoot ball
Ġanim als
c ri
Ġuni vers
Ġhe llo
ve red
Ġmar ch
Ġam ong
Ġf ing
Ġde f
Ġt ea
Ġy ellow
ist s
ter n
Ġbr it
uh huh
m ay
oo ps
i ence
Ġma j
f ort
Ġi ce
ck s
Ġj ump
Ġcle an
Ġb ra
Ġp en
Ġp ark
Ġp os
id er
Ġin s
Ġw at
u ro
Ġf ig
Ġto y
Ġpol it
Ġfr ance
Ġf ish
Ġcl ot
m on
Ġsome body
m en
Ġd am
Ġro ll
a x
et y
ate ly
o ve
Ġc ross
Ġso ld
Ġg ra
Ġo pp
Ġgl ad
Ġl ang
Ġd inner
Ġf rench
Ġthr ow
Ġre ce
ber t
Ġli ving
2 0
] ?
Ġch ur
Ġher self
ren ce
Ġ x
Ġt ried
Ġst or
Ġfin ished
it c
tw o
Ġqu iet
ious ly
Ġs am
Ġst ra
g n
k ing
Ġal b
ain s
Ġf ellow
Ġgener al
Ġt em
st em
v al
ol og
Ġfr ank
Ġthink ing
Ġb and
Ġcl ub
Ġsu dden
Ġb ill
Ġf ly
Ġc oun
Ġl ad
il t
f ic
Ġse nd
Ġt akes
Ġgovern ment
Ġ202 0
Ġre ason
Ġex pect
Ġcha p
Ġkill ed
c ent
f ord
ea red
Ġcon st
Ġchan ce
Ġpo st
i ke
u ed
Ġm ur
oo f
at t
Ġsur p
ac ed
Ġj ap
Ġhist ory
ac her
ha m
Ġbook s
Ġe gg
c il
Ġpart ic
Ġph one
st e
Ġsy stem
Ġy ork
Ġcar ry
Ġhe ld
Ġus ually
Ġbir d
ous and
g es
Ġall ow
it er
Ġc ri
Ġc am
Ġser ies
Ġco nd
Ġr ing
Ġwr ite
Ġp ig
Ġear th
Ġr unning
Ġdar ling
Ġth ousand
Ġs itting
t om
Ġo ri
Ġr om
he l
Ġbe come
Ġst ri
Ġk ept
Ġp ort
ut ion
Ġj im
Ġc ra
ho ld
Ġspe cial
Ġtrou ble
Ġf re
al right
Ġwind ow
Ġstre et
Ġo k
anc es
Ġ ?
iv ing
Ġl ow
Ġsh ut
a i
Ġc ow
u ct
ra id
er y
Ġtou ch
s y
Ġtr uck
Ġli ved
ro p
Ġ19 5
b s
al d
Ġso ft
Ġans wer
Ġbirth day
Ġst ood
Ġun cle
av y
ri l
Ġshi p
Ġob ject
Ġno se
Ġg ard
Ġjap an
Ġevery body
Ġfro g
Ġli e
Ġatt ack
Ġs us
k ed
c ds
iv ed
Ġb ow
Ġd ra
an a
Ġcl im
oo p
ar ch
b and
Ġge or
lo i
m as
Ġ1 7
Ġb ath
inn ing
Ġm um
Ġ #
Ġsu per
Ġlet ter
Ġ est
Ġro b
Ġ1 5
Ġk iss
Ġd et
itt en
os p
we red
Ġrepl ied
Ġche ck
te en
Ġrep ort
Ġf ix
Ġn ine
Ġt on
is m
Ġlang u
Ġtom orrow
Ġaf raid
Ġunivers ity
Ġsum mer
pl ay
r act
ess ion
Ġe uro
al th
Ġd ream
n et
Ġproble m
Ġjan uary
Ġf ur
Ġex per
he llo
ound s
Ġany way
Ġans wered
Ġin de
Ġd ie
c on
ic es
Ġc atch
Ġm aster
Ġ19 4
ar a
i um
Ġreg ion
Ġre co
Ġs now
Ġbl ock
Ġj une
Ġg ar
Ġb es
Ġeas y
Ġg ent
Ġfor get
Ġr ain
Ġchur ch
Ġhour s
Ġsee ms
Ġwhe ther
Ġpol ice
po int
mom my
ic ally
Ġo ct
Ġv al
Ġf ield
ain t
Ġde ep
Ġn amed
Ġsupp ose
Ġpoint s
Ġd aughter
Ġkid s
Ġp et
Ġex act
w a
l er
Ġsound s
Ġwith in
Ġjo e
p ort
ur al
m akes
Ġy a
Ġh us
l a
Ġclot hes
Ġf it
Ġfor t
Ġwhat ever
ud e
y our
Ġthem selves
c r
Ġsl ow
Ġmar ried
Ġt ur
Ġple as
g ue
il ity
Ġdepart ment
Ġt ired
Ġhi ll
Ġha ng
Ġc ast
u k
Ġl ord
v ision
Ġp ress
Ġd av
Ġstra ight
Ġcomm un
Ġalb um
Ġd uck
oo se
Ġrele ased
g as
Ġ1 2
mot her
Ġcont ro
Ġcomp le
Ġab s
Ġde ce
vel op
Ġyour s
Ġspe c
Ġe mp
Ġele ct
Ġr ad
Ġsha r
Ġv ar
Ġe ye
al ity
th ough
Ġp a
Ġli ves
Ġbo ard
Ġl uck
Ġsa il
Ġcomm and
Ġsec ret
e ad
Ġa ug
b les
Ġdistri ct
ow ers
Ġnew s
Ġknow s
Ġeat ing
Ġa unt
Ġ ...
Ġchar ac
Ġso l
Ġapp ear
Ġe ast
Ġeng ine
Ġcomm on
Ġmaj or
Ġa in
Ġan g
f er
r d
Ġoff ice
Ġm ist
Ã ¡
Ġpro per
Ġi mm
Ġh ol
o ber
Ġbrit ish
Ġgent le
o nd
Ġcha mp
Ġme mber
Ġl au
Ġpass ed
Ġmonth s
f r
if f
Ġo per
Ġv i
ph one
Ġsh ot
Ġst ation
Ġsu cc
Ġw ild
Ġcare er
Ġ1 6
Ġr u
f riend
Ġwait ing
Ġlot s
Ġposs ible
s ay
Ġaug ust
Ġmo ved
Ġex cl
Ġinst ead
Ġwork ed
Ġlove ly
Ġm art
qu e
y ed
Ġsing le
dad dy
gr am
ag ed
f ast
Ġb reat
Ġfor ward
at o
Ġd anger
Ġv ict
ag er
Ġdis co
Ġu t
Ġab ove
Ġse at
Ġno ises
Ġvis it
z y
Ġchrist mas
Ġh op
Ġcan not
Ġha ll
Ġsa fe
Ġinde ed
it ch
Ġsho es
Ġput s
st airs
Ġthir d
Ġhum an
s ome
Ġmid dle
ve mber
Ġsm o
Ġhus band
Ġf at
e k
Ġbe ll
Ġar ms
Ġde velop
Ġh ors
ul ation
Ġd est
whi ch
Ġt reat
Ġto ward
Ġto wards
Ġad m
b t
Ġput ting
i pp
Ġdif fic
Ġgard en
pt ember
aim ed
han t
Ġe qu
Ġde v
Ġapp ro
Ġhe n
Ġtele vision
u it
Ġ ]
Ġkn ock
Ġm is
er v
Ġeuro pe
Ġton ight
Ġe f
Ġchild es
Ġp al
child es
oo h
Ġbuild ing
her n
Ġcou ple
Ġfor got
Ġchi ck
Ġal though
Ġreac hed
Ġ19 3
Ġc re
Ġdis c
Ġs ight
w h
Ġhe ll
Ġquick ly
Ġap ril
Ġd at
as er
Ġpr in
Ġter ri
Ġoct ober
Ġdri ve
Ġpub lic
u ri
en e
Ġori gin
Ġeng land
Ġcl os
Ġbro ken
may be
Ġfav or
Ġd ut
Ġen jo
Ġsh out
Ġm or
Ġc op
Ġmar y
br uary
Ġor gan
Ġar ri
Ġlong er
Ġc aught
t r
Ġexact ly
Ġt est
Ġj ud
Ġs ick
Ġl ou
Ġeven ing
ot t
Ġc ool
Ġes c
Ġg ri
g en
Ġp eter
Ġco ver
Ġno vember
Ġfor mer
Ġphi l
Ġju ly
Ġju ice
Ġb right
Ġgl ass
Ġsee m
ard on
Ġv ie
Ġco st
Ġl ab
Ġfeel ing
Ġreturn ed
ck et
Ġf ill
Ġef fect
g ar
Ġh osp
Ġse ptember
Ġa head
Ġevery one
Ġneed s
r al
Ġp arent
Ġnear ly
Ġro se
Ġwor ry
Ġfe ar
Ġstand ing
Ġpl aces
Ġt ape
in ing
Ġcr ay
Ġdece mber
nd on
Ġstr ange
at ic
Ġwork s
w ith
Ġinter n
Ġh y
Ġsa ve
Ġvill age
i or
r t
Ġserv ice
Ġplay er
Ġar my
s k
Ġmil es
u gg
Ġchi ef
Ġtr ack
er t
itc hen
Ġan t
Ġcare ful
Ġtre es
Ġl ed
Ġsucc ess
Ġmill ion
Ġb urn
vo cal
Ġdire ct
Ġhung ry
in y
Ġwe l
Ġte acher
as k
nd ay
Ġchap ter
âĢ ĵ
ter day
Ġvie w
Ġsho ot
Ġse ason
Ġany one
Ġwar m
Ġtell ing
Ġg ames
Ġby e
Ġk itchen
Ġ1 1
Ġ ver
st on
Ġsupp ort
Ġfe bruary
uc ed
mb ers
Ġpre v
Ġpri son
Ġsu gg
g est
Ġb ud
n ed
Ġsugg est
Ġex cept
b a
end ed
Ġchan ged
Ġfollow ing
us ed
Ġme ant
Ġbreak fast
g ing
Ġsto pped
Ġper fect
Ġit al
Ġop ened
Ġbu ilt
y a
Ġt ed
Ġbl ow
Ġbro ke
Ġpu pp
Ġm ass
em y
Ġw his
Ġh oney
no on
l ie
ĠĠĠĠĠĠĠĠ ĠĠĠĠĠĠĠĠ
Ġwh om
Ġbe at
---- ----
Ġri de
Ġcertain ly
o d
Ġsupp osed
Ġf le
w ould
Ġp ack
Ġhe avy
Ġdis app
look s
Ġcon cer
Ġl at
i en
Ġturn s
Ġres p
b ur
Ġv ol
l t
ic h
i am
Ġr ab
Ġfar m
Ġsudden ly
Ġlo ndon
in o
Ġpro p
Ġfollow ed
ro d
Ġprot ect
' .
b or
Ġwr itten
Ġb ase
Ġdav id
w as
Ġus ing
Ġs illy
Ġsw im
Ġb ull
Ġbut ter
r or
Ġc and
Ġqu ar
em ent
Ġdec ided
am ent
Ġf a
Ġc ake
Ġbot tom
Ġsp ace
Ġde cl
ustr al
t ime
g ive
Ġg as
o f
Ġyes terday
Ġc ard
Ġpie ces
Ġpro gram
Ġtr ust
Ġpict ures
Ġt ot
Ġv an
sing ing
a f
Ġwho se
Ġ1 4
Ġsm il
Ġafter noon
Ġcir c
d om
ci ally
ri se
Ġind ian
n ight
Ġc ab
l in
ce ed
Ġ1 3
Ġbre ad
Ġin form
u el
Ġre qu
Ġadd ed
ha el
bo x
Ġwee ks
Ġt ick
Ġa uth
Ġa ustral
Ġst u
Ġcomple te
b ing
u ce
Ġpos ition
Ġleg s
Ġpartic ular
Ġlangu age
Ġor ange
Ġtr uth
Ġhosp ital
Ġme mbers
o b
Ġt v
p es
Ġsp ir
c at
Ġn et
Ġcoll e
w ill
Ġb on
Ġgeor ge
w ow
Ġs ad
Ġm un
id ence
. '
us hed
Ġsho p
Ġpret end
Ġcomp et
Ġm al
Ġr ub
Ġno body
Ġr uss
Ġd ir
Ġb ought
Ġhapp ens
Ġpr act
Ġho le
a ur
Ġdou bt
ffe e
Ġg iving
Ġan ge
Ġwatch ing
Ġwor th
em pt
Ġt ail
Ġb ank
ic ip
Ġthir ty
v a
Ġsp ot
Ġse ll
ul a
gr ound
Ġexc use
Ġhold ing
Ġcour t
d ie
Ġw al
Ġag re
Ġhi g
Ġexcl aimed
o on
Ġm ach
Ġp aul
Ġhas n
Ġde m
Ġany body
Ġdes cri
bo ard
Ġmo on
Ġbel ong
Ġwr ote
Ġd en
w ork
Ġexam ple
Ġb an
Ġfig ure
am b
Ġlaugh s
Ġfif ty
Ġrep res
t ell
Ġcam er
Ġb unny
Ã Ń
Ġc ause
ĠâĢ ĺ
Ġsome where
Ġj er
te red
Ġauth or
at ure
Ġu r
Ġf ri
Ġshi t
y n
Ġlea ving
Ġa le
Ġst uck
Ġl unch
Ġfin ish
Ġne ck
Ġle vel
Ġne igh
Ġim ag
e le
Ġcharac ter
Ġhe alth
Ġb ang
Ġlo c
Ġmo ving
h ouse
Ġcoun cil
s it
Ġh u
Ġexp ress
Ġf ail
Ġli ft
o int
ic ian
Ġo w
Ġbus y
m it
Ġfor ce
r ay
r it
Ġse x
Ġt ast
Ġcomp an
itt ed
Ġanim al
Ġparent s
gas ps
Ġ et
Ġap art
Ġfur ther
Ġd an
t urn
g ie
Ġst one
Ġinclud ing
Ġacc ord
is hing
ustr ation
Ġpop ulation
ad a
Ġd ry
g u
Ġcolle ge
w his
Ġmo d
Ġs ar
om in
p ed
Ġsu ff
Ġcar ried
Ġfuck ing
re en
Ġcur rent
Ġj our
Ġt all
Ġrece ived
Ġdiffic ult
Ġ ought
l ight
Ġfin ally
Ġde fe
Ġc aus
b ers
Ġsk y
Ġl ake
m iss
i ers
Ġn one
Ġco ffee
Ġqu een
Ġlea gue
1 1
Ġc as
Ġd ig
ic o
Ġr ace
ĠĠĠĠ ĠĠ
Ġs ense
anc y
ick s
Ġsil ver
Ġob s
Ġ3 0
y al
m ie
Ġor d
Ġfl owers
Ġdes ign
Ġv ide
s ings
Ġsee ing
re l
Ġv ir
Ġth ou
if ied
Ġintern ational
Ġany more
c her
Ġplay s
Ġse lf
Ġa ut
Ġele p
, --
Ġcomm une
k et
Ġte eth
Ġspo ke
Ġcoll ect
Ġwere n
Ġsp an
Ġcon vers
t ake
ple ase
Ġcent ury
Ġre ach
Ġr ul
bab y
o red
Ġpri v
t ho
Ġl oud
Ġapp eared
Ġm ix
c han
Ġoffic er
Ġb illy
Ġchamp ions
itt y
n ing
Ġr ap
m um
Ġbeg inning
gg y
Ġameric a
Ġcar s
Ġev ent
pe cially
Ġcr ow
Ġfing er
Ġe p
ent ed
Ġâ Ĩ
Ġhur ry
ill e
Ġsc r
Ġb om
enn y
w ant
Ġcom fort
Ġs en
Ġw et
Ġm c
point s
Ġst ore
ig er
Ġfil m
Ġe ff
Ġt it
Ġp ush
Ġcon tain
Ġpop ular
Ġwalk ing
Ġp ink
Ġnor m
Ġhors es
Ġcontin ued
g hed
Ġlo cal
Ġre v
Ġcry ing
Ġcorn er
ha r
Ġmin ister
Ġbri dge
Ġfe ed
Ġwas hing
e ch
Ġed uc
Ġhar ry
o ff
ru pt
vie w
Ġac cept
Ġallow ed
Ġatt ention
Ġwill iam
Ġwalk ed
ur a
Ġgr ass
Ġb a
Ġpu zz
Ġbot tle
Ġchick en
Ġr ail
Ġty pe
Ġb al
Ġst at
w or
ing ly
Ġche ese
ha s
ill ustration
Ġhel en
Ġsp ort
ï¿½ï¿½ ï¿½ï¿½
Ġli kes
c ut
re r
Ġf res
Ġreco gn
Ġw ide
es tern
Ġc ong
cl ock
Ġstu dy
is on
ann y
z a
Ġp ounds
ac ing
Ġri d
Ġcontro l
Ġcon ne
Ġbat tle
ou l
Ġd or
o ver
Ġ vers
Ġsil ence
Ġj ames
Ġh un
Ġpl ate
d a
Ġlo ck
Ġc ell
Ġwas h
av es
b b
Ġc y
Ġd ance
Ġt ear
Ġtr ad
Ġf ut
Ġ2 5
Ġwin ter
Ġinform ation
Ġdist ance
Ġa ward
u nder
Ġdro pped
Ġlo se
no ise
Ġb ased
Ġha n
Ġsp end
Ġtw el
y ep
Ġsm ell
w ood
Ġat e
Ġcap ital
Ġmeet ing
v i
Ġs na
Ġsc ar
Ġn ar
iz ation
f o
l ished
wa it
pl o
Ġ201 8
Ġme m
oun ced
Ġlet ters
Ġacc ount
iz es
Ġwel come
Ġha st
Ġpick s
ho h
Ġw ed
um e
ol ute
u ation
ac y
Ġst ars
Ġhold s
Ġd anc
Ġs out
s es
Ġshould n
Ġsha pe
Ġlau ghed
Ġcreat ed
Ġwonder ful
ic ed
Ġc ream
ous ly
Ġâ Į
Ġshar p
Ġbro ad
Ġdel ight
Ġper io
n es
Ġto r
Ġ19 2
Ġcom pl
Ġcons ider
Ġl os
Ġinv est
Ġapp le
Ġspe ed
Ġdro p
Ġpol ic
as hi
Ġit self
Ġmic hael
Ġent ire
Ġfore st
id s
Ġ $
ri age
ol ved
n ame
pp er
Ġsp ring
ig g
Ġres pect
Ġp il
Ġm atch
p or
Ġrom an
v in
1 0
Ġmun icip
Ġcra zy
Ġpart s
Ġne cess
Ġear s
Ġ ï¿½
Ġm ir
is c
Ġgu ard
re m
Ġlaugh ing
Ġlea ves
ed i
Ġp hy
i pe
Ġinterest ing
Ġp an
Ġh ous
pe red
Ġwr iting
Ġke y
Ġwhe el
Ġes pecially
Ġm am
Ġ202 1
Ġn ames
it ions
k y
Ġbir ds
Ġfavor ite
aul t
Ġl uc
Ġpe ace
Ġgre w
Ġcomp ut
Ġc a
Ġli ked
âĮ ĭ
Ġd u
Ġfam ous
Ġcap t
Ġgerman y
Ġpr ay
Ġread ing
âĮ ī
Ġmount ain
Ġs le
st r
Ġk ick
Ġph ot
r ound
Ġs an
Ġpl ant
s hi
Ġi r
s et
Ġd ick
Ġhat e
Ġha m
Ġc iv
Ġte ch
g l
Ġfa ith
i res
Ġj ul
. _
Ġinc re
w anna
Ġd ue
ant ly
Ġm ention
Ġfut ure
Ġbas ket
Ġstart s
Ġd in
Ġslow ly
Ġvide o
Ġf ool
Ġhi de
Ġsp l
Ġchar ge
Ġcar l
Ġme l
Ġal ive
Ġprof ession
Ġquest ions
p ardon
Ġact iv
de red
y le
Ġm ama
Ġan x
Ġthe e
b re
Ġj es
Ġl ying
Ġegg s
Ġf em
ast ic
Ġshow ed
Ġc ro
Ġe h
ce ll
Ġbel ow
Ġshe ep
Ġatt empt
cha rd
Ġg ives
Ġfr aser
ad es
Ġcray on
ut s
Ġinterest ed
Ġpa id
Ġtwel ve
Ġri ch
Ġser ious
f ield
ap er
Ġse v
ir d
pp y
so ci
Ġe ll
d en
Ġw ol
Ġbob by
Ġsurp rise
Ġbet ty
Ġb uck
Ġf ol
Ġis s
Ġsurp ris
ist ed
u hoh
Ġth us
Ġsm ile
Ġneed ed
Ġz e
Ġdest ro
Ġpre p
Ġho st
, '
if orn
d own
Ġso cial
ap s
t t
Ġrem ark
Ġt a
Ġl eng
Ġaf f
Ġre se
Ġsing ing
Ġgrand ma
ub lic
Ġsc ared
Ġsqu are
Ġcamer a
Ġm hm
as hed
col ate
Ġcl osed
Ġrab bit
Ġperio d
Ġking dom
k a
Ġre pe
Ġsub ject
Ġterri ble
Ġlo ved
Ġcal iforn
Ġf er
Ġbig ger
th ree
ust om
Ġfing ers
Ġmon key
Ġjo y
Ġf ed
Ġso ci
ress ed
Ġconvers ation
Ġmo der
it ary
Ġun ion
Ġ2 4
1 8
Ġm ac
Ġin fl
il ar
ro ll
p ers
Ġproble ms
id a
if t
b ig
as ion
Ġabs olute
Ġspec ies
h ood
s a
Ġo x
Ġl u
Ġcr ack
t ur
Ġto w
Ġp un
Ġas soci
Ġdog s
Ġro bert
ĠâĨ Ĵ
Ġrad io
as ure
Ġciv il
Ġn ort
Ġcaliforn ia
Ġmach ine
Ġi i
Ġcount ries
_ ,
Ġext ra
Ġsha re
Ġprov ince
Ġstor ies
er al
f ad
is f
Ġa ud
b ack
Ġ201 9
Ġco ast
Ġturn ing
n ic
" )
Ġg ro
Ġse par
Ġbreat h
Ġhard ly
Ġshow s
Ġprom ise
Ġrep ublic
ly mp
Ġdire ction
Ġimm edi
Ġl ion
it ive
Ġsim ilar
Ġphy s
om es
Ġelep hant
w atch
Ġf red
c a
Ġun less
w ise
Ġfor ty
nd ed
Ġpo cket
Ġst up
Ġale x
1 2
fat her
ly n
Ġsleep ing
an or
Ġg all
Ġask ing
Ġch oo
Ġas leep
Ġar r
Ġted dy
Ġh m
Ġcent er
ad s
Ġy e
Ġo lymp
p a
b ri
Ġw ow
Ġlead er
Ġst age
Ġo oh
Ġbe y
Ġrem ain
Ġfam il
the se
z er
Ġcom b
Ġfres h
i us
Ġ( "
Ġmic ro
Ġcent ral
Ġaccord ing
laugh ing
Ġnat ural
Ġthere fore
um ent
er gy
Ġind ia
Ġc ult
Ġi ron
c ul
Ġfor th
ab ly
Ġvi ol
Ġcir cle
nd s
Ġdir ty
Ġpick ed
in ation
Ġth y
ac hing
Ġf right
Ġhelp ed
o ld
ust ri
Ġser ved
Ġacc om
Ġpain t
Ġa v
Ġco vered
Ġk itty
Ġm ouse
Ġe aster
Ġact ion
ci ous
Ġpro cess
ol ution
Ġsp read
Ġmed ic
Ġpr ince
Ġpur p
Ġrel ig
Ġsl ight
ay s
Ġse arch
Ġn est
im ent
Ġco at
Ġ201 7
Ġold er
b our
out s
Ġway s
con om
Ġw estern
Ġme at
Ġd un
Ġsp ent
Ġlike ly
Ġspir it
en cy
Ġper form
Ġjo ined
Ġfin al
Ġstup id
y er
Ġj ew
n y
Ġpolit ician
Ġinclud e
il s
Ġam az
l ine
Ġlearn ed
Ġspo on
Ġc ous
u ction
Ġtalk ed
Ġt al
re ct
Ġ2 3
Ġam ount
Ġc art
Ġs ant
Ġfl at
Ġadv ent
p ret
in ite
Ġ &
Ġsu nday
a ven
Ġob v
Ġter m
g s
Ġcaus ed
and a
Ġr ow
m at
Ġsp r
Ġbey ond
Ġt end
s m
Ġbl ank
Ġent ered
Ġdraw ing
o v
Ġto wer
Ġposs ib
Ġwor se
ut en
Ġsm art
Ġl ower
v ille
Ġjapan ese
Ġe conom
s ure
Ġsit uation
us hing
ak er
Ġhe ro
z en
in ary
Ġ2 1
v ies
Ġ202 2
Ġrepres ent
Ġc ens
pt ion
e h
Ġsu e
Ġenjo y
er ve
Ġt iny
Ġt our
Ġs ize
Ġcall ing
Ġacc ident
Ġsat isf
Ġb ay
Ġbe ach
st op
o e
ord er
Ġspeak ing
Ġqu e
Ġb ound
Ġear li
Ġfight ing
Ġdecl ared
a ff
Ġd rew
c oun
Ġcr it
Ġsc ient
Ġ Â
Ġen emy
tho se
f our
Ġpro ject
Ġnat ure
Ġ2 2
y y
Ġg ate
Ġl ines
Ġvar ious
g on
is y
Ġb ite
Ġsho re
Ġprof ess
aught y
' ?
Ġst ren
Ġjo in
ree k
m ic
Ġleng th
Ġma x
Ġtri p
Ġspan ish
Ġle e
Ġfo x
Ġj ane
Ġcho colate
Ġmo vies
igh s
Ġhen ry
Ã ¶
Ġagre ed
Ġw ake
] !
gg ed
Ġdri ving
Ġb le
Ġdire ctor
s en
Ġfly ing
Ġn ic
Ġdoll ars
fe rence
bo y
Ġexpl ain
ad ed
Ġmark et
Ġw it
Ġt ax
Ġ201 0
Ġy o
Ġperson al
Ġr ough
or m
Ġut ter
n el
Ġhon est
Ġang ry
Ġup stairs
Ġn urs
Ġro le
Ġdire cted
Ġla id
Ġde li
in ct
ess ie
Ġro yal
Ġmiss ing
s il
Ġopp os
it es
er ved
ri can
Ġsc ream
Ġback ground
Ġnot e
Ġbes ide
ur day
o de
Ġwe ather
ep end
Ġmoder n
Ġst an
Ġsim ple
ac hes
Ġwood s
rap hy
Ġstart ing
Ġt ight
Ġlar gest
i ar
Ġdisc uss
k in
Ġint rod
Ġst raw
Ġaustral ia
b ar
d es
Ġdress ed
Ġsold iers
Ġwind ows
re me
p ly
Ġp ill
Ġpar is
Ġcens us
b ook
s hip
Ġstep s
Ġnum bers
b u
coun ter
Ġd eter
Ġ1 00
Ġrel ations
side red
Ġsand w
Ġcon sidered
are n
so a
u ps
f ri
f ace
1 4
1 5
Ġpl ann
k n
Ġst ock
Ġres ult
ic a
Ġw and
Ġlad ies
Ġam y
Ġs ens
act ion
all ey
Ġresp ons
f ive
Ġin f
Ġcl ock
Ġnort hern
Ġdri ver
Ġcomput er
Ġth rew
ri e
is ing
Ġstren g
Ġsu it
Ġdam n
Ġi de
Ġman age
Ġn ick
Ġu nd
Ġhe aven
Ġd er
Ġp ath
Ġesc ape
Ġpl aced
Ġshi rt
Ġarri ved
Ġsong s
Ġv es
Ġhappen ing
Ġref er
p hi
Ġche er
au d
Ġsp ell
Ġprofession al
Ġfall ing
c our
Ġcol ors
Ġmil itary
Ġjes us
Ġpolit ical
ed s
Ġchrist ian
um s
Ġblock s
Ġtem per
Ġcab in
i ally
Ġm ater
s omet
olog y
ci ent
Ġpr oud
Ġpleas ure
Ġstor m
Ġeduc ation
s u
Ġcle ver
cl es
Ġdisco vered
Ġwe ap
ck y
Ġset t
Ġreg ular
Ġcrow d
ent h
d r
Ġchar les
Ġn on
Ġ2 6
Ġhot el
Ġabsolute ly
Ġde mo
Ġra ised
Ġpri ce
Ġwat ched
ch o
e very
he red
3 0
Ġact or
Ġem plo
Ġpuzz le
Ġorigin al
Ġen ergy
Ġwear ing
w r
Ġd ust
am y
Ġbab ies
Ġe ager
Ġeff ort
Ġhon or
Ġhous es
Ġc rew
ab les
Ġhol id
Ġpupp et
Ġgovern or
Ġt ony
Ġn ap
on ed
Ġl id
he art
Ġdiffe rence
Ġhi ding
Ġ201 1
ag o
Ġde ck
p r
Ġgo in
Ġt ar
ed y
Ġmot or
Ġbes ides
Ġpull ed
Ġthink s
Ġeas ily
Ġpl ane
Ġne ither
Ġon to
Ġluck y
chi e
Ġan ne
ac hed
it ude
Ġquar ter
Ġpriv ate
for med
Ġmunicip ality
Ġdem and
Ġs ac
Ġac ad
ve ll
Ġth reat
ke ep
Ġind epend
g a
Ġyou th
Ġmiss ed
Ġo ce
Ġri chard
ant ic
Ġdanger ous
1 7
Ġn ur
Ġreg ard
or ies
Ġc uri
Ġgr ab
Ġprod uced
Ġhand le
Ġme x
Ġb or
pl es
Ġad ult
Ġcomplete ly
Ġany where
Ġte x
Ġinfl u
se y
Ġmo ves
Ġm i
Ġsar ah
Ġfor med
Ġman ner
Ġimmedi ately
Ġsk in
Ġ2 7
ill a
Ġof fe
Ġsur v
Ġd ate
Ġtast e
Ġp it
est s
uck les
Ġc hat
Ġtw ice
Ġsat urday
n ie
iv al
Ġsurpris ed
Ġar g
Ġfill ed
Ġw ound
Ġst ream
Ġsoci ety
m es
Ġbeg in
Ġtra vel
Ġsn ake
it or
Ġb oo
Ġsc ene
Ġed ge
Ġmean ing
Ġ201 6
as ons
Ġth ro
Ġad am
Ġprofess or
... ?
Ġhu ge
c ast
Ġpl ain
Ġemp ty
Ġhad n
f ill
v ir
Ġcar ol
Ġlou is
Ġhig her
iv id
br other
1 3
Ġthi ck
vocal izes
Ġp in
Ġa ye
Ġtra il
Ġend ed
ha h
Ġt iger
Ġfl ight
uten ant
i ant
Ġves sel
Ġneed ta
Ġdr ug
Ġmag ic
Ġdin os
Ġc ustom
Ġmon ster
Ġocc asion
h in
Ġ ..
Ġr oof
n in
Ġsu gar
om ing
Ġsmo ke
Ã ¼
Ġfr uit
ell y
Ġw ag
Ġsc ott
p icks
Ġde g
Ġ2 8
b et
Ġfl ag
ict ion
r at
Ġar rest
Ġm ike
Ġsim ply
Ġfe at
Ġann ounced
s ib
Ġcon v
Ġnot ice
Ġ2 9
Ġcent re
Ġn aughty
Ġlight s
ail s
Ġsing er
k i
re y
el a
Ġcal m
Ġdut y
ens ive
Ġs oul
Ġexper ience
m r
Ġt one
Ġset tle
Ġple ased
put s
Ġdep end
ho p
Ġsout hern
Ġt ong
Ġhead s
Ġcontin ues
p eter
Ġn ea
Ġtot al
Ġr at
Ġopp ort
anc ed
Ġch ina
Ġeurope an
Ġbl ess
Ġimag ine
w ar
Ġbut ton
Ġpurp ose
Ġsho e
Ġdou ble
ct ions
Ġfl ower
Ġexpect ed
Ġp ound
Ġfall en
Ġcook ie
it a
Ġam b
Ġass ist
th omas
Ġan cient
Ġbelie ved
Ġjour ney
Ġep is
Ġin j
Ġdet ect
i pped
Ġag ree
Ġj www
is n
Ġid ent
ber ry
Ġsupp er
Ġar ab
Ġber t
Ġexc ited
Ġnecess ary
Ġbra ve
f ly
Ġc raw
Ġgun s
Ġbri ef
. ,
Ġopport un
c us
Ġmost ly
Ġoffic ers
Ġlie utenant
Ġd im
ou ch
Ġpl enty
Ġp or
Ġcast le
bl ue
Ġcommun ity
k er
t akes
g ro
Ġopen ing
Ġmount ains
t ry
Ġbow l
Ġaw ful
Ġinvest ig
Ġgood ness
Ġpot ato
ri d
Ġ201 4
l ittle
ver se
Ġsus p
Ġtear s
Ġblood y
Ġfr anc
us hes
Ġoce an
Ġbo ss
Ġus ual
l v
Ġmag gie
Ġcous in
m ake
Ġkn e
n al
en ing
ter ing
Ġchar lie
l or
an other
Ġgr own
Ġprin cess
Ġnur se
Ġrun s
one l
Ġoff er
Ġse le
Ġele ction
ne w
led ge
Ġbr ush
Ġ201 2
Ġdoll y
Ġg az
Ġ )
us ion
Ġital ian
Ġearli er
Ġdemo cr
ve re
Ġw il
Ġcho ice
ou ps
Ġb i
at ors
Ġm ut
ie l
c ries
Ġe mer
er o
Ġe ld
Ġr ay
Ġswim ming
Ġimp ro
Ġsa ved
Ġpri me
Ġ201 3
ab el
Ġmur der
Ġex e
Ġpleas ant
ress ion
Ġapp arent
ar m
Ġbrother s
Ġprom ised
ru ction
Ġi v
p ing
Ġp ir
Ġatt ract
Ġtex as
b ra
Ġrap id
Ġev idence
Ġbr ain
be red
Ġp ra
s w
Ġwe ight
Ġdef inite
Ġru le
Ġst ret
ha l
ines e
c ould
Ġ- -
Ġmove ment
Ġear n
f all
Ġter ms
Ġlisten ing
Ġj un
Ġex ist
Ġstr uck
Ġh orn
gg ie
Ġstreng th
p et
Ġp ause
ris ing
Ġhe at
Ġrem o
ci p
Ġelect ric
i ps
look ing
Ġh ug
Ġm ult
Ġsc ot
Ġste am
Ġ201 5
Ġinter rupt
1 6
Ġcare fully
Ġbe ha
Ġent er
Ġgrow ing
Ġsw ing
Ġdo c
Ġsecond s
Ġkn ife
Ġstr ugg
Ġf ault
m ark
Ġnot iced
Ġkeep ing
en a
Ġfour th
sh ould
Ġocc up
Ġjud ge
j en
bur g
Ġgr ace
il ed
Ġd ise
ry a
Ġdes p
nd ing
Ġruss ian
Ġj am
Ġsa v
k o
Ġfif teen
Ġphi li
ul ts
Ġmess age
Ġl iter
Ġmart in
Ġ200 8
Ġl ap
ea ks
Ġfl or
Ġfall s
Ġgold en
Ġsc ience
c ing
ist r
mo nd
Ġfri day
Ġmedic ine
Ġor dered
wh oops
oint ed
and y
Ġli ps
ic ated
Ġev ident
id ing
Ġp air
Ġrel ie
Ġgr ay
Ġobv iously
Ġest ab
w est
Ġhist or
Ġmist ake
Ġwe ak
and er
Ġshould er
r ain
b an
ric a
k ins
Ġsa f
Ġwat ches
Ġfem ale
Ġbon net
Ġgr oups
5 0
ĠâĢ Ļ
Ġp ic
go ing
Ġli ber
Ġmy ster
Ġfellow s
oss ible
p ro
Ġj ose
Ġgl o
Ġo il
ist an
b ell
Ġme al
Ġbl ind
Ġst airs
Ġinv olved
Ġprod uct
Ġs our
Ġpub lished
Ġri sing
Ġl in
Ġind ivid
n s
Ġgra ve
Ġin qu
Ġr ac
Ġocc ur
Ġch oose
b el
2 00
Ġwalk s
Ġn ed
Ġare as
Ġtr ade
Ġgentle man
op en
Ġr out
d is
Ġord ers
Ġr am
Ġpl ants
s how
Ġcan ada
cha r
Ġital y
Ġsha d
Ġnin et
j a
Ġt aught
Ġc ards
Ġmiss ion
Ġ200 9
Ġl y
Ġmag az
Ġk at
Ġpe as
Ġ200 7
Ġb ub
Ġchampions hip
Ġmar ry
Ġnew sp
Ġtell s
ist ics
Ġpri ze
Ġcor rect
Ġs ides
ur ity
Ġwashing ton
Ġtrain ing
Ġpur ple
Ġtit le
hi re
Ġro s
ak ed
Ġcall s
Ġrem em
Ġfound ed
il es
Ġbeg ins
Ġdanc ing
Ġp our
iz za
Ġ[ ?
Ġr ange
Ġsl ide
Ġcomm itt
Ġac qu
Ġthro at
Ġv ac
Ġw rest
Ġright s
Ġu k
Ġbed room
al ed
Ġrock s
ll a
Ġtri es
ĠâĮ Ī
ord on
b es
Ġte ach
ive ly
Ġnorm al
Ġe mb
Ġs aint
Ġg al
le br
Ġch inese
Ġshe ll
th ink
ist ers
Ġrem ind
âĮī .
r om
ou red
Ġche m
ber g
Ġact ress
Ġclos er
Ġde lic
Ġele ven
Ġimp ossible
Ġadd ress
ough s
Ġrese arch
Ġal ice
Ġ5 0
m el
Ġspo ken
st a
Ġt u
Ġsc rew
Ġ200 6
Ġt ap
is hes
Ġmot ion
Ã ¨
lo gy
Ġtele phone
Ġfind ing
Ġvers ion
âĮ Ĭ
Ġgr ant
Ġdiv ision
Ġchan ges
Ġprod uc
Ġnat ive
w he
Ġf ashi
Ġmu se
Ġpl at
Ġdevelop ment
f a
Ġsmall er
z il
s ighs
Ġeaster n
Ġl oss
Ġsm ith
-------- --------
Ġcl aim
Ġevery where
w ater
Ġi ris
Ġdown stairs
Ġfir m
Ġhar m
g ress
om s
âĮĭ .
Ġnin ety
Ġcr own
Ġag ed
j am
ll e
s aw
Ġhon our
Ġreac hes
Ġgener ally
Ġfix ed
Ġc red
Ġcol onel
Ġprep ared
em an
Ġsur round
an ing
Ġgreat er
Ġce lebr
nd ered
Ġclim b
Ġwor ried
b ow
Ġpr int
Ġp ool
k at
if y
Ġsh own
Ġbeaut y
Ã ³
Ġe ve
Ġwol f
m us
Ġman aged
Ġb um
h um
Ġsha ke
ers on
Ġapp re
Ġpres ently
Ġr ang
Ġs om
Ġloc ated
Ġb other
Ġs au
Ġdis p
e z
Ġjump ed
Ġb art
Ġ( )
Ġtong ue
Ġan na
s n
ho l
en ces
Ġad min
gy pt
Ġrul es
i ot
Ġm ud
Ġm ail
Ġstud io
re al
Ġsix ty
Ġp sy
Ġsw ord
em s
c ont
Ġchan nel
Ġcri me
Ġaf rica
Ġcas es
as hing
Ġbra zil
Ġus es
land s
Ġev il
Ġpl ans
Ġbar n
Ġev ents
Ġr ust
Ġv alley
s ar
Ġd are
Ġwhe els
il ing
Ġent ertain
Ġr ate
Ġshow ing
Ġspe ech
Ġres c
Ġf aces
Ġbat ter
Ġother wise
Ġforgot ten
al ing
bab bles
Ġp ants
Ġri sk
Ġsp ain
-- "
Ġbit s
Ġex cell
Ġcarry ing
Ġsuggest ed
not hing
Ġgentle men
Ġb ark
Ġh ook
Ġart ist
Ġe gypt
ot ed
ho st
Ġw ha
Ġdeter m
Ġrem ained
Ġsur face
r ot
not e
Ġkind s
Ġrecord s
s l
Ġstud ents
Ġpro ceed
Ġbe e
Ġcommand er
d ies
Ġshe l
Ġserv ices
Ġsport s
kn own
Ġpract ice
Ġopportun ity
Ġh ind
Ġpar li
s orry
Ġc it
Ġmar riage
Ġwhi st
Ġlo ves
on ly
e re
Ġa ustri
ir st
Ġli br
Ġdo ors
Ġman ager
Ġdrink ing
Ġg ay
Ġmod el
Ġquiet ly
he st
Ġsandw ich
Ġpossib ly
Ġy ell
Ġfar mer
Ġappear ance
Ġkn ee
Ġz oo
but ed
is a
ck ed
Ġvict im
Ġlead ing
Ġcontin ue
Ġshout ed
at ives
Ġair port
Ġtrad ition
Ġb essie
hi ps
Ġneigh bor
Ġav ail
Ġno vel
uh uh
Ġop in
j es
Ġto ast
Ġd read
Ġcommitt ee
Ġisland s
Ġparli ament
re ally
Ġolymp ics
ri ck
hi c
Ġwho a
Ġpo et
Ġg or
Ġsp ider
Ġma le
o c
Ġsw it
Ġ q
ri ll
Ġro pe
Ġstay ed
m ama
Ġri ding
Ġsec urity
Ġshi ps
Ġst ir
Ġfav our
Ġafter wards
Ġstand s
Ġoppos ite
Ġa st
Ġde re
Ġconst it
Ġdefinite ly
Ġro ss
ha ppy
Ġsw ed
af ter
Ġform ula
Ġf und
Ġb ac
Ġa wards
Ġbar b
Ġb are
Ġst yle
Ġt ie
Ġart ic
Ġp enn
p an
Ġper cent
Ġla ura
Ġvo cal
Ġcont ract
Ġoffic ial
Ġext reme
Ġsal t
Ġsus pect
Ġcond ition
wor th
Ġc ities
Ġl add
Ġb ump
Ġbo ats
Ġadd ition
Ġsaf ety
k ar
iet y
Ġfor ces
Ġsu c
Ġint ell
w ing
Ġup set
g reen
Ġ19 0
Ġsit s
Ġinst it
Ġemp ire
Ġre ck
Ġcol our
Ġsant a
_ _
Ġwall s
Ġha l
an o
Ġill ustr
Ġsa ke
Ġoffe red
Ġplay ers
Ġyoung er
y ear
Ġk ore
Ġp urs
Ġhelp ing
Ġholid ay
Ġw ine
Ġr ings
Ġb ike
Ġl es
Ġm ate
ll en
Ġour selves
Ġschool s
Ġn a
Ġst aff
Ġcont act
Ġcl oth
Ġgreat est
Ġbut t
b on
al a
p ill
Ġtr act
Ġkn ight
Ġpap ers
ver t
Ġeas ier
ol s
Ġo l
pl ane
act ually
Ġninet een
c ra
ian a
bo b
c ry
ch ing
Ġco ach
Ġvict or
Ġsecret ary
Ġw ise
ch uckles
Ġas se
Ġfranc is
j u
Ġmer c
Ġg host
Ġnar row
Ġdirect ly
Ġob l
Ġk ar
Ġdec ision
Ġha mm
che ster
Ġ20 00
sil ence
Ġsmil ed
Ġapparent ly
Ġ ~
on se
Ġcl own
Ġacad emy
Ġt rop
it ation
Ġdo in
Ġdes k
Ġdut ch
m n
t les
Ġho ly
Ġstr ing
oun ce
as es
Ġfore ign
Ġl em
Ġret ired
Ġpap a
Ġf est
Ġfashi on
et te
Ġmon t
he t
Ġwhis pered
fill er
Ġkeep s
uck y
Ġatt end
Ġlaw yer
s ho
Ġsh ook
iz ing
Ġfright ened
Ġsuccess ful
Ġide as
Ġm ort
Ġma id
Ġtow el
Ġg y
Ġball s
Ġb isc
n ice
Ġk im
iss ion
Ġaf fect
Ġcr u
d ro
ve y
no ds
Ġwill ing
Ġrep ly
Ġa vo
Ġmicro phone
Ġa ver
Ġmo nday
Ġv en
Ġsure ly
ad o
Ġsome what
ci se
Ġel iz
Ġvir gin
ab eth
ep ing
Ġin n
Ġsoft ly
Ġknow ing
âĢĿ .
on ment
Ġmet al
Ġeight y
Ġben ef
a is
Ġcirc um
Ġf urn
Ġeat en
Ġteam s
Ġb in
Ġhor ri
Ġstr uct
Ġsold ier
Ġup per
Ġp ier
Ġbring ing
Ġanx ious
Ġknow ledge
Ġind ust
Ġche st
Ġfre ed
Ġwed ding
Ġli m
fr om
s ed
b out
Ġsil ent
Ġw an
re g
Ġadm ir
i als
Ġnurs ery
r am
Ġmem ory
Ġte xt
Ġfair ly
h h
c ream
Ġro d
Ġbath room
Ġsuc ceed
Ġchair man
Ġcomfort able
ipp er
Ġbe ast
Ġball oon
Ġmention ed
fe ction
Ġfor ced
Ġ200 5
er n
Ġparticular ly
f irst
Ġje ff
Ġfair y
Ġexpl ained
Ġbig gest
Ġinclud ed
Ġmam ma
e v
Ġsett led
um ber
Ġmuse um
f ire
Ġchi c
Ġperfect ly
st ood
Ġbr and
Ġsho pping
Ġhill s
f le
ff ic
s ix
Ġfle w
are t
Ġp ages
Ġsh r
Ġb id
fo ot
j i
ol a
Ġf ancy
Ġw ings
Ġbo ots
Ġgi ant
it ar
Ġha y
Ġst ro
Ġlo g
ing er
Ġwas te
Ġal i
Ġwa ited
ent al
Ġpro ve
Ġdec ide
ul ous
Ġbri ll
ii i
Ġcan cer
do or
Ġapp l
b ly
Ġtri ck
f ish
Ġdevelop ed
Ġrepe ated
l aw
Ġy ard
th row
Ġmag n
Ġ200 4
Ġt id
ens ion
Ġp izza
in i
Ġr uth
Ġr ush
Ġp ump
ce l
Ġhang ing
Ġbud dy
Ġse es
Ġcop y
Ġme re
Ġstud ied
Ġs in
ce ly
p ull
Ġc ub
se qu
Ġv ent
Ġlar ger
ar r
p ur
Ġhig hest
Ġch ris
Ġmed ical
Ġmet ho
ac he
Ġglass es
Ġdise ase
Ġ4 0
ater pill
Ġin no
m end
Ġpal ace
Ġwor st
ian o
Ġf ence
c key
Ġde b
Ġp ow
vo c
Ġs ite
Ġfeel s
ind a
Ġwr iter
Ġter rit
m ary
Ġind ians
Ġ200 1
a ft
Ġres po
Ġhear ing
Ġg ordon
Ġepis ode
Ġar chi
Ġro ger
Ġj ones
Ġpass ing
Ġp red
ific ation
Ġproper ly
Ġen vir
Ġthought s
Ġop ens
s qu
Ġth or
Ġresp onse
" ]
chi ef
Ġesc ap
Ġv ote
whi le
Ġcat s
Ġpower ful
Ġem per
fort un
Ġphot og
Ġpain ting
ar ies
Ġh unt
is ions
whis pers
Ġasse mb
Ġn omin
ot a
Ġm oo
Ġf al
Ġtrans port
Ġclear ly
g al
ast y
Ġappre ci
Ġact ing
Ġr y
Ġsign ed
Ġremark ed
Ġc ute
per ing
y ellow
t hi
e at
n ers
Ġw id
n am
Ġne at
Ġc ris
Ġg ab
m aking
un ts
pl ace
at ory
u its
Ġwe ird
ĠâĢ Ķ
Ġtalk s
ho lic
Ġmat ters
d raw
i est
Ġpen cil
Ġassoci ation
Ġ ess
Ġr ome
Ġhur ried
Ġblank et
Ġc oo
Ġrel ated
Ġ 0
Ġfr an
Ġd omin
Ġser ve
Ġfore ver
Ġ199 0
Ġsk ill
et t
Ġpre par
j e
Ġd uh
v iet
Ġm ile
Ġaf ford
Ġbur st
Ġadmin istr
Ġg at
Ġke ys
Ġlat ter
Ġrele ase
Ġdinos aur
ul ty
Ġty pes
Ġd ump
Ġr ank
Ġjose ph
is her
Ġf aster
Ġpress ure
Ġdi am
Ġs ink
Ġch uck
ow ed
Ġthr own
l im
m orrow
y up
Ġm ister
Ġf ac
Ġgrand mother
gr and
Ġbom b
Ġp ushed
Ġth in
ra el
mot ion
ab out
Ġthe ory
hold s
b its
Ġf ired
Ġknock ed
Ġgo al
Ġqu al
an ia
Ġcan ad
Ġbr an
Ġg ather
Ġex er
Ġconcer ned
b i
Ġreal ize
op her
Ġmagaz ine
Ġh mm
Ġele cted
re es
Ġve get
Ġf ought
all ed
Ġkne es
Ġwit ness
Ġavail able
Ġplan et
Ġjust ice
Ġlangu ages
Ġkind a
on a
Ġlibr ary
Ġp oo
t alk
Ġaf rican
Ġdisapp eared
Ġpre fer
Ġp ardon
Ġun c
Ġk enn
Ġsmil ing
sc ream
Ġb ent
le ct
Ġar th
uss y
Ġc ant
Ġr ot
Ġwee ke
Ġha w
Ġproper ty
Ġpolic y
Ġr are
Ġprot est
Ġremem bered
um ents
miss ion
Ġval ue
Ġp ant
ro l
Ġflor ida
Ġn erv
m et
Ġfeel ings
ans as
f in
Ġcr ash
Ġsy mp
as c
igg les
Ġwonder ing
ne ver
Ġspo sta
Ġopin ion
Ġ18 9
Ġchic ago
_ .
Ġt ent
g i
Ġamaz ing
Ġexcell ent
ick ed
Ġvo ices
w are
in ated
Ġlea f
Ġbase ball
Ġi re
Ġat l
Ġg reek
a ign
Ġw ished
Ġb ul
Ġpos itive
l ist
Ġg ang
Ġ" '
le nd
as p
Ġaver age
Ġsc reen
Ġsqu ir
Ġre n
Ġst ones
Ġb unch
p ha
Ġunder stood
i let
Ġf ully
Ġl oose
or ing
Ġf ishing
ro ad
Ġr on
Ġcook ing
Ġarr ange
Ġt ied
Ġre ve
Ġdo zen
ra ph
.. ..
Ġthrough out
Ġdra wn
Ġfail ed
ver ing
Ġser iously
Ġconf ir
Ġrev olution
Ġthrow ing
Ġag ent
Ġruss ia
Ġaustral ian
Ġtr oops
do g
Ġadv ant
Ġrelations hip
ha nd
Ġl one
Ġpat ient
ha ha
who a
Ġcl ou
Ġbl o
Ġenvir onment
w alk
Ġfre qu
Ġmater ial
Ġd ying
al y
Ġcomp os
Ġpur die
Ġs oup
Ġdark ness
Ġprev ious
m ine
ing u
Ġp ak
Ġtr u
Ġmed al
Ġactiv ity
Ġaw are
Ġexe cut
Ġstat istics
ick ing
Ġgr adu
cra ft
ang le
Ġshould ers
Ġfriend ly
Ġn ation
play ing
Ġc ups
Ġjo ke
Ġtot ally
b led
Ġcom ment
j an
Ġb ol
Ġm ap
Ġcamp aign
Ġmag net
Ġdro ve
Ġt ummy
Ġmir ror
Ġtech n
qu ar
Ġaf t
p ol
Ġbus h
Ġc aterpill
Ġso viet
Ġste ven
Ġmed ia
Ġtra vell
Ġ198 0
Ġbr ook
Ġpres ence
Ġmer ry
Ġin it
Ġfo nd
Ġange l
Ġje an
pret end
Ġmex ico
r s
Ġb is
Ġpro gress
Ġs ang
Ġk en
g ust
Ġne g
Ġdr unk
Ġis rael
Ġse ction
Ġtre asure
Ġnet work
Ġve hi
i ents
os h
Ġ200 3
Ġfol ks
2 2
st ers
Ġwa ve
b ot
Ġend s
rem ember
Ġli es
Ġf an
Ġd om
Ġri se
Ġgar age
Ġshoot ing
Ġpe ar
Ġn av
Ġ[ $
ro z
Ġho ckey
Ġv ic
Ġobject s
ack s
Ġst om
Ġtou ched
h or
Ġbu ried
ro g
Ġc ot
Ġdro ps
Ġhun ting
Ġjim my
Ġexpress ion
Ġire land
et a
Ġj ig
Ġfig ures
Ġreport ed
Ġemper or
z o
Ġpull ing
Ġpl astic
Ġdeterm ined
Ġa im
Ġgood bye
Ġcommun ic
Ġpro s
Ġbec oming
Ġfe ather
Ġsha me
Ġser ge
so ft
ish ment
g ir
Ġo dd
Ġsome how
Ġre view
t is
Ġg ift
Ġu g
Ġentire ly
Ġco ck
d i
Ġ18 8
Ġl it
Ġinst ant
il ities
Ġkill ing
et ch
i ge
w in
Ġant i
Ġt ale
Ġdam age
Ġfamil ies
as ing
Ġtom my
Ġsub st
b ury
Ġbox es
Ġter ror
Ġg ain
Ġcomm ission
Ġstay ing
Ġmult i
Ġcl oud
Ġexc it
Ġcharac ters
Ġcurrent ly
Ġfamil iar
Ġbrill iant
Ġele anor
Ġreal ized
Ġmix ed
Ġc her
na h
tain ed
Ġfort une
Ġj on
Ġbit ch
Ġas ide
aw s
Ġ200 2
r ant
Ġun fortun
Ġdescri bed
ow ing
Ġinclud es
Ġstr anger
po or
t in
Ġfor give
Ġt ha
Ġw aves
Ġfo ld
Ġi ii
Ġhi dden
Ġed ward
Ġstop s
Ġcompan ion
Ġt ask
s ung
Ġtract or
Ġtrans l
Ġpoint ing
Ġp enny
Ġdr ama
Ġ18 6
Ġpoint ed
Ġsign al
k iss
Ġre asons
Ġtrain s
ch oo
Ġdeg ree
Ġevident ly
Ã ¤
Ġso cks
Ġcircum st
ot hy
Ġhe ight
Ġent r
Ġpull s
Ġcar riage
k now
Ġgrand pa
Ġindivid ual
Ġfreed om
Ġto ilet
âĮ Ī
est y
Ġprod uction
Ġdat a
Ġze al
Ġcit iz
Ġgrand father
ib ility
Ġcray ons
Ġperform ance
Ġrec ently
cha ir
Ġscot land
Ġeliz abeth
Ġcour age
Ġstri ke
Ġk m
ur t
Ġj um
Ġt ough
h s
n ope
Ġfor ms
al es
Ġadv ice
Ġhe av
Ġposs ess
19 9
Ġfif th
Ġpay ing
Ġnewsp aper
Ġmat ches
ag ing
Ġj ung
Ġf art
Ġg a
Ġtech no
ber ries
Ġbe ars
Ġdes per
fr aser
Ġs isters
Ġw ore
Ġpl us
Ġdes ire
Ġrail way
l am
ent ial
Ġeffect s
Ġobs erved
Ġgre y
Ġsweet heart
ĠÂ ¶
' ,
2 5
Ġladd er
Ġadvent ure
Ġrecord ing
Ġintell ig
Ġdist ur
Ġcanad ian
Ġp ale
Ġexc han
Ġburn ing
Ġgat hered
Ġ[ .
ar ing
Ġcat holic
enn is
ke e
Ġste ve
Ġfort un
Ġand y
ab oo
Ġsusp ic
Ġg rap
Ġme as
Ġinst r
ele anor
Ġto es
Ġh om
Ġw ard
Ġlock ed
Ġc ave
Ġa er
gg ing
ct ors
Ġgo at
Ġjim mie
Ġt ip
Ġlo ad
Ġbr ad
ep s
Ġin ha
ul ations
Ġexcit ement
ct ure
Ġpart ner
Ġcont ri
Ġhorri ble
Ġarth ur
Ġy ards
Ġcuri ous
Ġt ank
. âĢĻ
Ġbu ff
Ġcut ting
Ġjump ing
Ġweeke nd
Ġc ash
Ġcons erv
Ġcand y
Ġf ier
Ġcont r
Ġindepend ent
as y
Ġdream s
Ġsev enty
en ced
Ġbre aking
Ġfol k
4 0
Ġsle pt
Ġbuild ings
Ġque er
Ġs han
Ġde er
v is
Ġdun no
p ot
Ġben e
ign ed
Ġf ant
Ġjul ia
Ġsc ore
Ġrece ive
Ġslight ly
Ġa chie
Ġg ently
Ġmad am
Ġnorm ally
Ġcult ure
Ġjer ry
ar i
Ġdr um
Ġsp ill
Ġcook ies
Ġauthor ity
b ird
Ġp ony
Ġsy mb
Ġb ast
Ġcomm er
Ġtra ffic
Ġda wn
m i
Ġa u
Ġsc he
Ġact ive
Ġpick ing
Ġj ail
ie ce
Ġprison ers
p art
Ġstre ets
Ġcra ft
ne ath
Ġair plane
Ġthe at
co d
Ġso re
Ġri ce
in c
Ġco al
ah hah
Ġber n
Ġscar cely
Ġown er
Ġgod d
Ġindust ry
Ġche ek
Ġweap ons
u le
Ġn ut
Ġsepar ate
Ġwood en
ist ic
Ġgr am
Ġha bit
Ġk o
am ing
Ġas h
Ġrecord ed
Ġdestro yed
c use
at a
Ġameric ans
Ġstud ent
Ġbo ston
Ġacc ess
vocal ize
Ġplann ing
Ġcong ress
Ġiss ue
Ġbran ch
Ġinter view
Ġet c
Ġd ish
Ġsho ck
Ġmay or
Ġwhen ever
a res
Ġmar g
Ġlearn ing
Ġtar get
Ġfeat ures
l ot
ar ily
Ġcha se
v id
m ad
let s
Ġwo ndered
Ġscient ists
unn el
Ġ3 1
Ġ197 0
Ġsc ri
Ġorigin ally
Ġevent ually
Ġfield s
Ġhands ome
Ġlaw s
Ġrequ est
ĠâĮ Ĭ
Ġmain ly
Ġneigh bour
Ġcl iff
ian ce
t oo
Ġres ist
Ġhol es
Ġb order
Ġme asure
Ġmo b
Ġuse ful
Ġbutter fly
Ġstand ard
per haps
Ġrel ax
Ġcompan ies
id ents
Ġb one
Ġind ic
Ġinst ru
Ġroll ing
Ġrelig ion
Ġaut om
Ġdor othy
um n
Ġclou ds
st y
Ġen cour
Ġow l
Ġo li
Ġown ed
Ġp ac
Ġbene ath
Ġste pped
Ġpupp y
Ġcred it
Ġbri an
Ġso le
Ġestab lished
c are
Ġar row
we re
ues day
Ġlist ened
Ġpro ved
m u
Ġb ust
Ġh ut
Ġinflu ence
2 3
Ġw ra
Ġg il
hes s
uc le
Ġw ipe
Ġfl ash
Ġb ones
Ġlat in
Ġsp ite
b in
d in
ap t
n or
Ġvict ory
Ġlift ed
Ġd yn
be y
Ġcreat ure
anc hes
Ġbo dies
Ġa id
zer land
Ġhel ps
Ġbl ame
t ies
Ġheart s
Ġd oo
Ġpe e
Ġchair s
Ġw ire
ell a
Ġrapid ly
Ġc ord
Ġbec omes
Ġrecord er
Ġfed eral
Ġtown s
Ġwound ed
zz z
d at
Ġ202 3
Ġbag s
m al
Ġlab our
us es
a un
ic y
ins on
Ġsp lend
Ġnot es
Ġpil ot
Ġtri al
Ġswit zerland
Ġper formed
Ġshad ow
Ġrest aur
Ġange les
Ġnerv ous
w an
Ġ ï¿½ï¿½ï¿½ï¿½
Ġres ults
Ġtur key
Ġjig saw
Ġl ink
o y
Ġcaterpill ar
Ġdiv ided
Ġprev ent
Ġnea rer
Ġp ity
itc her
Ġco de
to gether
Ġdra gon
Ġour s
Ġlead ers
Ġremo ved
ur ance
g ers
Ġre nt
Ġpak istan
Ġl amb
Ġdemocr atic
y ay
Ġj ac
Ġpe an
ri a
Ġtr unk
urs day
Ġfrog s
Ġhors ie
h us
Ġy ep
Ġad op
Ġspec ific
Ġal arm
Ġcom edy
Ġgre et
Ġsort s
n ina
unt ary
Ġgu il
om a
Ġra ise
Ġcor por
Ġenjo yed
Ġr acing
k f
u f
Ġ ing
it o
Ġjack et
ico le
mus ic
n ce
Ġb io
somet hing
Ġ xx
Ġf u
Ġmar ks
Ġmus ical
Ġdetect ive
ed ing
Ġequ al
Ġde mon
Ġp y
d ri
Ġf aint
om b
Ġmat t
Ġto oth
Ġ196 0
Ġn ina
Ġhe sit
hel p
Ġdiffic ulty
r r
Ġs aus
Ġmight y
ris on
Ġbrit ain
Ġs id
Ġwat ers
he tt
Ġfl ore
Ġobl ig
b oo
Ġun us
Ġapart ment
Ġrelig ious
" ?
Ġl am
Ġgu itar
Ġthousand s
ic an
Ġdestro y
Ġland ed
Ġdiam ond
t ar
Ġgreat ly
Ġcre ate
turn s
Ġr hy
Ġfle et
! '
ke ys
Ġw inn
Ġk ings
c oughs
Ġ( ;
Ġarr ang
er ves
Ġ199 9
Ġan ton
Ġinv ited
Ġexc iting
Ġm as
Ġsp are
Ġstom ach
Ġs ons
Ġth under
Ġsign s
2 1
Ġwas hed
Ġdo ggie
Ġpe ggy
Ġconne ct
Ġcompet ition
Ġjour nal
Ġlos ing
ig r
Ġaw ake
Ġgl ance
Ġge og
Ġpo lly
Ġdes ce
Ġjob s
Ġclim ate
ous ers
eng ers
Ġadvant age
Ġunder neath
Ġdr own
Ġy um
Ġtend er
Ġp ure
Ġat h
Ġdoll s
Ġlone ly
j ack
Ġeld er
Ġl ack
Ġexper ien
Ġb orrow
Ġa ld
Ġbe er
Ġa x
Ġroom s
Ġpur se
l ong
Ġcou ch
Ġh omes
Ġw ing
Ġle ge
Ġzeal and
the w
Ġrespons ible
Ġiris h
Ġr ug
op s
Ġr um
Ġord inary
g iggles
um ed
point ing
Ġcompet ed
Ġreck on
Ġme chan
Ġshi ft
Ġclose ly
eng u
Ġtru ly
Ġrelie f
ul f
min al
Ġp itch
Ġshow er
Ġj ar
Ġphil os
l ou
Ġoper ation
Ġre jo
y l
nes day
2 4
Ġun if
Ġeat s
Ġsweet ie
Ġug ly
Ġcom r
Ġstick s
Ġele v
Ġn ucle
i ation
n on
Ġan no
Ġeng aged
ha mm
Ġsupp ly
Ġhat h
Ġcr uel
Ġspl it
? '
po st
Ġluc y
Ġcand id
Ġw inning
u a
Ġbr anches
Ġ199 6
Ġ18 7
Ġdec or
Ġprison er
Ġhamm er
Ġbri cks
Ġtem ple
ist ry
Ġsqu ee
a ffe
nd a
Ġshout ing
Ġtreat ed
Ġkid ding
Ġgeor g
Ġte aching
u ries
Ġbri ck
Ġt uesday
Ġ199 2
Ġbre ast
inn ed
Ġsystem s
Ġguil ty
âĢ ķ
Ġp ile
Ġty p
Ġp iano
Ġchan ging
Ġr ushed
Ġsl ipped
n at
Ġsour ce
to ys
Ġsymp at
ha d
Ġp itcher
Ġpo ison
Ġgu ide
v y
Ġw itch
Ġer ic
av a
Ġc ott
Ġadm it
Ġfest ival
Ġoli ver
Ġcoun ter
Ġk il
Ġinv ol
im ate
Ġro de
ate g
Ġa ston
Ġre act
Ġp ipe
Ġl orry
it an
Ġbr ings
Ġcont ent
Ġda ily
Ġbad ly
u ous
Ġr ag
Ġno ble
Ġne p
Ġsha kes
Ġpres ents
Ġorgan ization
Ġqu ality
Ġadv ance
Ġf ate
Ġmist ress
Ġt am
Ġsu ffe
Ġno dd
Ġcon sequ
Ġcha in
Ġresc ue
Ġste al
Ġcon qu
ic ient
Ġ199 8
Ġprin cip
Ġt in
Ġp ud
Ġse vere
or g
pe ech
Ġcomp let
Ġlad s
Ġsw itch
it z
Ġst ack
g raphy
ell e
olog ical
Ġcrit ic
ek aboo
Ġaccept ed
Ġs i
Ġrepl aced
ad or
il a
ro se
Ġaff airs
Ġth ursday
Ġhop ing
l ock
p ush
Ġfart her
6 0
Ġso ap
Ġhur ts
Ġice cream
Ġgu est
Ġsmo oth
l ow
Ġli qu
Ġall ah
Ġset s
Ġi gn
Ġbu nd
Ġpat tern
Ġcho sen
Ġdel ay
Ġhast a
Ġcircumst ances
se ll
Ġcon ce
Ġrequ ired
Ġdu ke
Ġthor ough
Ġp ussy
app ing
Ġbel t
Ġsl ave
Ġrec om
Ġc ows
ac le
Ġcon ference
n ament
Ġcapt ured
Ġ199 5
Ã© e
Ġ Ã
che st
Ġch in
Ġleg al
Ġmaj esty
h ot
oint ment
im it
cent r
Ġsac ri
Å į
ul ated
Ġwar ning
Ġref used
Ġpr oof
Ġsw ift
Ġto ss
Ġun it
Ġintrod uced
Ġpic nic
Ġwag on
Ġar med
bl ack
Ġpartic ip
Ġl ane
Ġj enn
Ġpl ot
ste in
a a
Ġn an
ho re
Ġdis hes
Ġpri est
Ġflore nce
Ġstruct ure
gen cy
Ġdo ggy
g lo
Ġbu zz
] ,
Ġpre m
Ġattack ed
Ġdiv or
o le
Ġcur tain
Ġtemper ature
Ġdemand ed
sh ine
Ġ199 4
Ġprop os
Ġp owers
Ġp ooh
Ġwed nesday
Ġfo cus
sh outs
Ġweap on
Ġpart ies
Ġtur tle
Ġtr ousers
Ġcirc us
Ġwal ter
Ġsp eaks
Ġsch ol
Ġprov ided
i que
Ġroll ed
it ure
al o
Ġcompan ions
Ġtrop ical
Ġdes ert
em ies
Ġwe b
cept ion
Ġsatisf ied
c ount
e ight
Ġavo id
j ohn
Ġcond itions
Ġbit ter
Ġexp ensive
Ġrob in
Ġdrug s
Ġw re
Ġsp in
Ġserge ant
Ġpass age
Ġearn est
Ġterrit ory
Ġescap ed
Ġt i
Ġk ang
Ġeight een
Ġuni verse
Ġrecogn ized
Ġplann ed
b ling
Ġless on
Ġpolic eman
Ġthr ows
Ġhop ed
Ġless ons
Ġeager ly
Ġint ended
Ġap olog
Ġsign ific
Ġar ts
Ġmar ia
l ar
en ger
Ġsp ect
Ġus eta
al ds
Ġstud ies
st one
Ġag es
Ġsus an
Ġappro ach
Ġcross ed
Ġre ar
ke l
Ġjack son
e ks
Ġin sp
Ġmin or
Ġconst ant
Ġcol on
Ġdesign ed
Ã ±
cont in
b al
he m
Ġact ual
Ġset ting
somet imes
or ter
Ġrem ains
Ġmom ents
Ġo ven
Ġhum ans
re c
Ġappear s
Ġcha mber
Ġrout e
Ġde but
Ġwo ke
Ġt an
Ġcon centr
Ġy yy
Ġn ancy
ren ces
Ġal together
ict ed
Ġsix teen
Ġtrack s
Ġbo om
Ġsc en
w o
Ġp as
Ġg ained
Ġbelie f
Ġbas ically
Ġnight s
Ġtrans fer
umb led
Ġsoon er
Ġfun ction
b ir
er able
Ġar k
Ġadvent ures
Ġapp ointed
umb ling
Ġmc don
Ġpri de
Ġel im
Ġprov ide
Ġv ot
Ġnar r
Ġse ated
Ġfind s
Ġban ana
Ġbuck et
p ir
Ġhar der
Ġ199 7
s que
Ġl isa
ger y
n ons
t ie
Ġcar r
Ġw oo
Ġkiss ed
Ġapp e
Ġpro mot
Ġfl ood
Ġtechno logy
Ġo ak
Ġchamp ion
an ed
Ġr and
hm m
Ġt unnel
Ġand rew
Ġpo le
Ġfoot note
Ġsent ence
Ġsen ior
Ġentr ance
Ġtreat ment
p op
am eric
list en
Ġj elly
g t
ab ility
Ġgr ate
Ġpr on
did n
Ġqu it
Ġsplend id
at i
Ġbelong s
Ġsele cted
Ġassemb ly
us ing
Ġscr atch
bre ak
than ks
an ne
Ġcl ay
Ġst ern
Ġl aughter
Ġex hi
Ġclim bed
Ġdefe nd
c orn
Ġs ally
Ġbo ld
ex cuse
ou ri
um es
Ġconne cted
em ic
Ġinno cent
Ġwrest ling
m itted
Ġbe ans
Ġexpl os
whis pered
Ġf ile
Ġp unch
Ġp ed
Ġchi ps
Ġsl ip
Ġsc ary
Ġswe ar
t ra
Ġen emies
Ġpo nd
Ġsy lv
car l
Ġincre ased
Ġgr ad
op ter
Ġincre ase
w om
Ġn ations
ar ian
Ġlab or
hett i
t i
Ġup side
is ha
lf riend
Ġt ub
Ġs orrow
ur ally
Ġke en
Ġste ady
Ġbe cky
Ġj ess
Ġsee k
Ġdis play
Ġequ ip
aw a
Ġho ll
Ġsk ir
Ġcro cod
Ġphys ical
Ġre ven
b id
d em
Ġpat sy
Ġd ot
Ġsw all
Ġchem ical
Ġinc red
Ġc age
Ġf el
Ġp ushing
anc ing
Ġce ased
Ġextreme ly
Ġmo le
add le
l ers
Ġsh ining
Ġoccur red
Ġro les
or ange
Ġse qu
Ġprod uce
does n
Ġfour teen
Ġsol id
e ven
Ġdon ald
Ġsa le
is l
Ġdelic ious
m ont
Ġclim bing
Ġteacher s
Ġn avy
Ġfire man
hi gh
Ġcontro ll
Ġv ice
Ġmetho d
â Ļª
Ġhad ta
Ġd ude
Ġgo sh
Ġpre gn
m un
Ġc ale
b c
Ġalex ander
es h
Ġmar ie
Ġk ir
m outh
Ġsc are
n ik
or a
Ġgot ten
Ġsend ing
Ġvol ume
Ġt iss
Ġ198 8
f ers
h ur
Ġm ood
Ġd um
iss a
Ġold est
Ġdi ag
y ard
g un
Ġdisapp ear
Ġhigh ly
Ġdan iel
Ġcollect ion
Ġaff air
2 8
l au
ck ing
Ġal pha
Ġburn ed
Ġprotect ion
Ġrec ent
Ġvirgin ia
Ġa ha
Ġkind ly
Ġal f
Ġal tern
bo at
Ġring ing
2 7
u x
ag ain
Ġ199 1
Ġspir its
Ġbutt ons
Ġsell ing
un a
Ġche ap
Ġsuffe red
ink y
Ġpass engers
Ġdelight ed
Ġcoo per
ri ch
Ġdistri buted
Ġa y
Ġk ent
Ġbr on
Ġpost man
Ġsho ps
Ġim per
Ġdo ctors
Ġcl ar
Ġemer gency
Ġin cl
Ġport ug
Ġl az
Ġstate ment
j une
Ġmur m
c ur
Ġdet ails
Ġf iction
Ġd iss
Ġp ad
ha med
Ġc ig
Ġste el
st ick
ump h
Ġwal es
Ġblow ing
wr iter
Ġo s
Ġsex ual
Ġwhi t
Ġd ave
Ġsun shine
Ġrecogn ize
Ġnet her
Ġdis gust
Ġphili p
i os
Ġpig s
Ġb ord
Ġc reek
Ġgo ds
Ġsto le
ri ce
Ġpl ates
Ġaunt ie
Ġspr ang
Ġswed en
Ġdist ant
g onna
Ġmust n
mo ves
b age
Ġc ough
al ous
Ġte en
eak ing
Ġc ries
Ġcomple x
Ġc ass
am i
Ġimpro ve
Ġpo ll
Ġcong rat
Ġbasket ball
Ġmark ed
2 6
Ġm abel
Ġrid ic
Ġinha bit
Ġj enny
ul ance
Ġarrest ed
Ġbis hop
Ġse ats
Ġtr ump
Ġwe alth
Ġapp les
Ġwar ri
Ġda isy
Ġdis ney
Ġduck s
Ġb ible
Ġtor n
Ġbo ot
Ġpsy ch
le ave
Ġhundred s
ad ing
Ġcha llen
ri m
Ġho lly
Ġmarg aret
Ġpill ow
Ġjun ior
on ia
Ġl t
Ġshe d
Ġappreci ate
Ġs ings
re ls
ain e
Ġb ree
Ġun able
ho le
Ġgu ests
Ġdo l
Ġst ol
ag hetti
Ġsc out
Ġr att
inv ol
Ġun like
Ġun known
Ġi g
lo ve
am s
ea ble
Ġsand y
cry ing
Ġd ea
Ġde put
Ġtom ato
Ġ199 3
se ven
Ġentertain ment
invol untary
âĢ ľ
Ġbu g
g reat
Ġgl or
Ġt uck
Ġc aut
art s
Ġ6 0
Ġwor n
Ġcell s
Ġaustri a
b ang
Ġp engu
Ġdri ven
a unt
Ġwork ers
Ġsha pes
Ġpain ted
Ġfin an
ch ool
Ġhapp iness
Ġaccom pl
Ġbu ying
Ġproduc er
Ġri vers
Ġgood s
Ġfor k
Ġsp ots
Ġadv anced
Ġbet h
Ġpoor ly
Ġl ic
Ġkill er
ail ed
Ġmyster y
Ġher s
Ġc ents
Ġst ad
Ġan ch
com ing
Ġpir ate
Ġbub bles
e er
i as
Ġreg ret
Ġarrang ed
, âĢĻ
h un
Â °
Ġc ad
ort ed
Ġpre cious
Ġri fle
in al
o ons
Ġsec ure
quar ters
Ġcond uct
Ġequip ment
Ġd anny
Ġs igh
Ġbreat hing
ri er
Ġb ann
Ġc ud
Ġle ans
Ġcho se
Ġdeli ver
Ġsylv ia
Ġli f
us hi
Ġb un
Ġm ak
Ġsymb ol
Ġqu ant
Ġsail or
Ġrequ ire
Ġir an
Ã º
Ġex ha
Ġin se
Ġse as
Ġgir lfriend
go es
ge o
Ġarchi te
Ġsl aves
Ġpresent ed
se x
op l
Ġexp ed
Ġc au
Ġo d
Ġcond u
Ġins pect
w ers
Ġha ha
Ġqu ack
Ġann ie
Ġeconom ic
Ġa ven
any thing
Ġc hess
Ġwind s
Ġ198 9
19 8
Ġwilliam s
4 5
Ġs ig
Ġcan oe
Ġconf ess
Ġiss ues
Ġun s
. )
z ing
be ep
Ġland ing
Ġconf idence
ron ic
b ie
Ġmiss ouri
ri dge
Ġas ia
Ġw is
Ġnether lands
less ly
Ġprincip al
Ġa ri
Ġb oun
Ġhi pp
br ush
Ġsound ed
Ġt ig
cri bed
Ġhand ed
Ġbroad cast
Ġpotato es
Ġd ub
Ġsuff er
. --
Ġo t
er ation
Ġso fa
int s
Ġcaus es
re fer
Ġcont est
sha kes
whi te
Ġback wards
Ġphili pp
el ess
Ġmat thew
Ġreturn ing
Ġfr ag
Ġid iot
Ġmad ame
Ġobs erv
Ġr ude
Ġche eks
Ġsp ark
Ġad vert
ang ers
Ġry an
hel en
Ġfail ure
Ġmanage ment
Ġtick et
Ġhur rican
Ġlet ting
ative ly
Ġprop osed
Ġdesp ite
Ġbarb ara
r ac
om y
Ġlou ise
k no
Ġan th
Ġchar t
Ġunus ual
Ġlate ly
Ġse ized
Ġele ment
Ġw ip
Ġcom par
ul ate
ren e
ne cess
Ġsqu ad
ic ide
Ġrac hel
iv ity
Ġsy d
scream s
he w
Ġfe ver
Ġto ols
t v
Ġadm itted
Ġapp lic
Ġcri cket
Ġexer cise
Ġtick le
Ġcomplet ed
Ġab ility
Ġres our
Ġbri g
ak i
Ġpur cha
Ġstrong er
Ġsha king
Ġcons ult
Ġp ushes
Ġconst ruction
Ġsucceed ed
Ġo pt
Ġpar ish
Ġserv ant
Ġ195 0
Ġdev il
ann ine
Ġg le
Ġbrief ly
l ies
Ġcar pet
b ag
Ġthir teen
Ġsettle ment
Ġo we
2 9
Ġw icked
Ġref le
Ġroad s
Ġt ag
Ġn uts
Ġcreat ures
Ġk ate
Ġsomet hin
Ġbus hes
Ġrestaur ant
Ġnat urally
Ġp ha
st ill
ig ator
Ġstrugg le
" ).
3 5
r un
Ġdoll ar
Ġje alous
ino is
Ġaud ience
Ġth rill
Ġfl u
Ġfal se
Ġhy dro
Ġst iff
Ġse l
Ġper mission
m ind
... "
Ġexpl an
os es
Ġcott age
Ġchi m
Ġtruck s
whe e
m ag
Ġcol umb
Ġdoc ument
Ġplat form
Ġgo als
m aster
Ġp ope
c est
Ġv ig
Ġkore a
Ġtem pt
a ire
Ġm au
Ġsleep y
Ġjer sey
Ġco vers
Ġsl ipp
vo ice
Ġle w
Ġloc ation
Ġsen ate
Ġn ons
Ġp aus
Ġtra ve
Ġdrink s
f it
Ġsc ale
Ġexchan ge
w ha
Ġpers ons
u ing
Ġtur k
bur gh
c up
s ong
Ġsu p
bye bye
Ġvocal ises
l ast
han g
Ġlu x
Ġstad ium
er ous
ak a
Ġbed s
Ġchampions hips
Ġbal ance
Ġf c
Ġill inois
Ġscream ing
an i
Ġsuff ering
p ass
Ġs ne
Ġe c
Ġre ward
Ġshel ter
Ġjohn son
refer ring
Ġp ul
Ġ198 4
Ġrespons ibility
Ġtradition al
3 7
p ick
Ġamb ulance
Ġoccup ied
Ġ /
pe ople
Ġt um
Ġg ree
Ġno isy
ell ed
Ġsh h
Ġinc ident
bri dge
Ġsurround ed
Ġban ks
Ġg on
Ġal bert
hen s
Ġlar a
Ġoper a
Ġell en
c ake
s ur
Ġf uss
Ġvo y
Ġdepend s
Ġlet s
Ġc av
Ġfollow s
Ġlim ited
Ġl amp
y um
bab ble
Ġox ford
Ã¡ n
Ġsp y
Ġdisco ver
Ġsev ent
Ġtri be
Ġg inger
st ar
Ġab o
Ġsc at
Ġpass ion
Ġassist ant
Ġp ine
Ġmean while
Ġhel ic
Ġexper iment
al so
Ġlo ving
Ġrom antic
Ġan ger
Ġrain ing
Ġspl ash
Ġartic le
b ish
Ġtheat re
l ines
Ġcheck ed
---- "
Ġshort ly
Ġshar k
Ġrev ol
d ear
Ġcarol ina
et ts
qu ick
Ġcitiz ens
Ġinhabit ants
ri cal
Ġgir affe
Ġbull et
Ġble w
Ġheav ily
Ġf acing
e ating
Ġlo is
Ġunif orm
mo ve
Ġbe a
Ġas hamed
Ġgl ory
ps y
Ġinstit ute
t own
w ind
at han
ic ing
qu es
Ġmic key
Ġj r
Ġeng ines
Ġdescri ption
b en
l st
Ġdisco very
americ an
c ook
Ġpow der
Ġd ies
ri an
Ġ18 5
Ġjung le
Ġth umb
Ġj ason
Ġun com
stand ing
Ġb ass
Ġsal es
Ġg if
Ġeconom y
Ġeffort s
Ġro y
Ġreal ity
Ġemb arr
Ġcon vin
lot te
ck en
Ġsto ve
Ġshe et
Ġfr ame
Ġent hus
Ġnodd ed
Ġd ed
Ġroll s
pt on
l ots
Ġcon clud
Ġdist inct
Ġpay s
Ġh oo
Ġconstit ution
Ġe ag
who se
Ġinst ance
Ġ3 5
Ġfool ish
Ġembarr ass
Ġbri d
cal ais
ĠĠĠĠĠĠĠĠĠĠĠĠĠĠĠĠ ĠĠĠĠĠĠĠĠĠĠĠĠĠĠĠĠ
Ġwhist le
Ġneighbor hood
Ġfurn iture
Ġcol ored
Ġsix th
az z
Ġsafe ly
m ate
Ġf ab
c ies
Ġpolit ics
Ġbeg un
Ġpol ish
ch r
Ġsc hed
Ġ197 2
Ġnons ense
Ġs is
Ġtr ay
Ġfact ory
Ġ198 7
a way
Ġval u
Ġcontain s
ap ers
19 7
necess ary
Ġfor d
ol i
Ġnomin ated
4 7
Ġamong st
Ġcot ton
uf act
a e
Ġwr it
Ġspeak er
Ġphotog raph
Ġm mm
Ġridic ulous
Ġp up
Ġis lam
Ġan al
Ġmajor ity
Ġcompl ain
e ve
Ġgre g
Ġclot hing
Ġsna p
Ġcomp ared
b oth
Ġl an
han ts
Ġv ain
Ġa z
Ġ198 6
g ent
Ġed die
ste ven
Ġconne ction
ask a
Ġquar ters
m il
Ġr ho
Ġun its
Ġjohn ny
Ġmart ine
Ġconsider able
Ġcarol ine
Ġstol en
Ġc u
t op
Ġy ummy
Ġab and
Ġprep are
Ġce real
Ġjew ish
Ġutter ances
s ound
Ġs ou
ag ue
Ġreturn s
rop ri
Ġprin ci
Ġfirst name
Ġatt ached
e g
ag an
Ġgeorg ia
Ġinter net
Ġposs ession
id ers
Ġco vid
Ġcal cul
Ġlege nd
Ġreac hing
Ġpean ut
Ġman ufact
ach us
Ġprev iously
Ġabo ard
Ġt ay
os ity
Ġdir t
Ġreport s
some body
Ġinqu ired
Ġhealth y
Ġconfir med
i j
b us
Ġsyd ney
Ġv ast
Ġsto pping
Ġhi d
Ġsau ce
Ġatl antic
a urs
Ġbe es
Ġmo lly
re aches
Ġsout he
Ġconf l
ar ia
cc a
Ġaf fection
Ġf asc
Ġche w
Ġmunicip al
h u
ather ine
Ġan cest
im me
Ġle on
Ġbel g
Ġart ists
Ġwil son
Ġhi ts
Ġdescri be
Ġco co
cl ose
c ia
Ġbas ic
Ġexha ust
Ġk y
s an
Ġer r
Ġdist ingu
Ġdri ft
Ġcup board
Ġhead ed
Ġpray er
f ind
Ġp ist
Ġtra p
w ide
Ġre fe
âĢ ĺ
Ġse asons
Ġhor ror
Ġbud get
Ġt el
Ġbe ads
Ġpers u
Ġinst antly
r us
Ġd ur
Ġf its
Ġboy friend
sy lv
Ġsmil es
Ġmere ly
Ġvis ited
Ġprom pt
g one
Ġrem ove
Ġtre mb
Ġindepend ence
Ġnucle ar
Ġs ed
Ġcr ab
Ġ198 1
Ġas ian
Ġpart ly
Ġhead quarters
Ġpress ed
Ġlem on
te acher
Ġoblig ed
Ġclass es
Ġexpl ore
Ġvehi cle
Ġhurrican e
om i
Ġpo ly
Ġbast ard
Ġp ho
ir ing
k ind
Ġdread ful
Ġbenef it
Ġair craft
Ġcar bon
wor ks
Ġpac ific
Ġg ates
Ġexam ples
Ġdra g
Ġloud ly
g rap
Ġvir t
Ġcapt ure
Ġc akes
Ġd ull
Ġclean ing
b by
Ġany how
Ġla un
Ġappro aching
Ġf id
Ġst amp
ro s
Ġind ustri
Ġsupport ed
Ġgeog raphy
pp ers
ge ous
k ers
e va
Ġn ana
Ġk i
im ents
Ġmer cy
Ġpig gy
Ġserv ants
Ġfinan cial
achus etts
am an
Ġv on
mb ur
Ġim age
Ġtal es
col n
Ġmem or
Ġm cc
Ġas ks
up on
Ġtour nament
phi a
Ġwhere ver
Ġact ed
Ġrock et
Ġf ame
Ġn az
th s
ff in
Ġpri mary
Ġret ire
Ġcons cious
Ġsal ad
Ġpri or
Ġappro ached
Ġachie ve
Ġpretend ing
t ick
Ġbe ep
Ġh ood
Ġwho ever
Ġab e
Ġjo lly
Ġhar v
Ġprogram me
re ts
Ġman s
Ġbr u
hi m
ct s
Ġsto res
Ġ197 6
Ġprov in
Ġf are
Ġcontain er
Ġact ions
Ġest ate
b ad
Ġbe lly
Ġbill ion
Ġcontri but
al i
Ġw ishes
Ġgl anced
Ġdef ense
Ġdisapp ointed
Ġemplo y
Ġbe nd
Ġe cho
Ġso il
Ġlo yal
gr unts
Ġo o
Ġcy cl
Ġmid night
Ġ197 9
Ġcon cl
Ġgrand dad
Ġcut s
z es
Ġarm en
Ġexecut ive
go d
Ġconf used
Ġins urance
Ġfeed ing
Ġbern ard
Ġtiss ue
m ight
Ġal an
Ġchrist opher
Ġm s
Ġgener ation
Ġat m
est ic
Ġdeg rees
Ġdemon str
Ġs ung
Ġret reat
Ġcommon ly
Ġdra ft
Ġstro ke
Ġp ip
ll ie
Ġsc ored
Ġclos es
Ġnot ed
ing ton
Ġe motion
Ġper ce
Ġinj ured
__ __
' ...
4 6
Ġsh y
Ġpit ched
Ġcl ient
r ad
Ġd umb
Ġexpect ing
Ġa ust
Ġli ver
Ġrepublic an
3 6
Ġr ud
un ting
Ġv iet
Ġp uff
oo s
Ġk er
Ġcat tle
Ġscri pt
Ġcrocod ile
Ġunderstand ing
Ġimport ance
Ġunfortun ately
es c
ri ly
b ill
Ġchar lotte
ug s
Ġmus lim
Ġcost s
Ġmass achusetts
Ġb unk
h ome
u als
Ġin come
ro ld
Ġ198 5
Ġrub bish
Ġin ches
Ġear ned
t ape
un te
Ġwhi lst
to y
br ing
Ġac id
ne xt
Ġcap e
Ġsim on
Ġcant on
d av
Ġauthor ities
Ġw inner
Ġl ind
Ġstret ched
Ġbatter y
Ġst able
Ġcommer cial
Ġg oose
be e
Ġgrap es
ed er
ay e
Ġmi chi
c all
Ġmar s
Ġcarr ots
op hy
Ġint end
Ġsc o
Ġpat rick
Ġalbum s
Ġk ansas
Ġlin coln
he im
Ġs ke
Ġr unn
em e
bb ie
ea u
Ġlet t
Ġhouse hold
l on
Ġviol ence
Ġthr ust
Ġmob ile
Ġa k
Ġsp aghetti
Ġtrain ed
ar on
Ġbe ating
Ġbisc uits
Ġm ast
ĠĠ Ġ
Ġ8 0
Ġath let
Ġgrate ful
Ġvar iety
Ġelim inated
in ter
ink le
Ġatt ended
Ġbud d
Ġscient ific
Ġm ild
Ġhun ter
Ġmum mie
g iving
j www
aught ers
Ġz ero
Ġland s
r ans
Ġbl ows
Ġnat ives
Ġfil ms
Ġwe bs
Ġarri val
Ġpir ates
Ġpregn ant
Ġalong side
Ġstraw berry
Ġlo ft
Ġfe ast
Ġser ving
Ġrust ling
Ġto rt
Ġon line
Ġre ign
Ġsa x
g ate
j er
Ġst ations
Ġtem por
Ġdesper ate
p re
Ġpart ners
Ġconcer t
Ġdefe ated
keep er
Ġillustr ations
Ġr us
Ġem ma
Ġsepar ated
Ġâ ľ
Ġ198 3
o k
Ġvol unte
Ġaccom pan
Ġsatisf action
3 8
h l
Ġ {
Ġans wers
Ġwhis per
Ġremain ing
Ġit ems
p ent
Ġn ord
ell ie
Ġfrancis co
a id
l ace
Ġg um
Ġl ung
Ġnea rest
Ġpros pect
Ġe re
Ġsc outs
Ġmind s
Ġill ness
Ġrefer red
Ġâľ ¿
er ted
Ġto dd
om er
Ġtid y
4 8
p se
Ġben ch
Ġconf ident
Ġd ining
Ġagre ement
care ful
ha rd
all as
Ġdad a
Ġal co
Ġnice ly
Ġcri minal
Ġarg ent
Ġcry st
Ġs ought
ir a
Ġaw a
Ġpet e
Ġoffic ially
Ġmur dered
Ġde y
Ġnow here
Ġbell e
Ġli ly
Ġmiss us
Ġwar s
Ġs ara
s am
Ġj ake
Ġbo re
---------------- ----------------
nons peech
Ġbet ray
Ġvessel s
u ge
Ġbuild er
Ġtrou bles
Ġaward ed
Ġd iet
st an
Ġdeep ly
Ġrepres ented
Ġum bre
Ġstar ring
Ġr al
od es
Ġd ough
Ġre action
Ġgu ards
Ġpenn sylv
ad el
Ġn ik
Ġpub l
Ġfaith ful
Ġrespo nded
Ġst ew
Ġmulti ple
al ie
Ġsav age
9 0
Ġd ing
el ine
c ase
Ġchi p
Ġsn eak
Ġinterrupt ed
Ġto e
Ġsa ving
e ves
j im
Ġwant ing
Ġun ex
Ġdef ence
Ġvac ation
Ġnor the
Ġde e
ive red
Ġhigh way
Ġinn it
Ġatm osp
j ump
Ġbreat he
Ġp and
Ġpresident ial
Ġbisc uit
Ġgrand ad
Ġste ad
b ear
e ld
Ġse eds
pect ed
Ġleg isl
Ġmex ican
Ġsche me
Ġb icy
Ġv ision
f ound
Ġbom ba
Ġpe pper
jam as
ock s
every body
Ġl yn
Ġnum erous
Ġ198 2
dr ink
ro y
ro nd
ur d
Ġwha le
g ment
p u
Ġ3 6
Ġvisit ors
Ġrub ber
rop ol
Ġolymp ic
Ġd aughters
Ġcl ark
Ġlew is
s i
Ġn app
Ġp i
Ġconfl ict
an as
Ġsur gery
Ġim pl
Ġfig ured
Ġclos ing
t im
Ġar ch
get s
Ġgerman s
Ġsole mn
Ġthorough ly
g ues
Ġnear by
Ġstep hen
contin ues
Ġpun ishment
il i
Ġm all
Ġpennsylv ania
no ld
Ġdraw er
Ġexped ition
m ers
gg er
Ġfun eral
Ġconcer n
p res
int end
Ġgri m
Ġsaus age
Ġvalu able
im um
Ġnorth west
Ġproduct s
Ġpaus ed
Ġgab ri
Ġhelic opter
Ġstick er
Ġ197 4
Ġcon c
Ġdri ll
Ġoccasion ally
Ġdis ci
Ġt une
Ġf i
Ġthr one
Ġcount ing
3 9
z ed
Ġli z
Ġ9 0
Ġf isher
Ġrepe at
Ġstri ct
Ġp eak
Ġfl ed
Ġtouch ing
Ġdefe at
Ġdeput y
Ġf ires
Ġliter ature
ll ey
Ġb ib
Ġp iss
Ġam use
be fore
Ġuk rain
p her
Ġs ie
Ġcolor ing
Ġmcdon alds
im ately
Ġdon key
n ine
Ġw oof
Ġr h
Ġche ers
Ġmichi gan
d uck
Ġsk i
Ġdress ing
rem ony
Ġanx iety
Ġrecom mend
l an
m oo
Ġst ated
Ġreg ions
Ġgrow th
a ah
Ġso ck
Ġgr at
Ġact s
Ġsail ing
Ġbelong ed
Ġbar ry
Ġfor bid
Ġcap able
Ġfeather s
Ġto ol
Ġimp ress
Ġce remony
Ġinf ant
Ġn as
Ġ197 8
Ġsn iff
h on
Ġt ide
Ġm ental
Ġport ion
Ġaustri an
Ġb enn
Ġint ense
Ġfe e
mr s
is se
Ġbr uce
cul iar
Ġs her
Ġla unch
hi o
on ce
Ġ196 8
pro bably
Ġse al
Ġ4 5
Ġelep hants
â Ĩ
Ġcl ap
Ġuse less
Ġdav is
Ġsurv ive
p ool
Ġcomm itted
Ġexplan ation
Ġa www
Ġl as
if er
Ġb aker
Ġbl az
Ġed ition
Ġext ent
Ġactiv ities
Ġele ments
Ġspan i
Ġt ack
Ġthi ef
Ġfriends hip
Ġbear ing
Ġber lin
ac ious
let on
Ġthir sty
Ġ197 7
Ġvictor ia
Ġchim ney
Ġbr ace
p ig
Ġm and
Ġpe culiar
Ġw ins
Ġstar ing
Ġchur ches
Ġho llow
Ġsy n
Ġstick ing
Ġscott ish
Ġchar ming
tr uck
nd y
Ġtre mend
Ġdelight ful
Ġhonest ly
Ġk ong
Ġab d
Ġanim ated
Ġles lie
Ġgrad ually
g ai
Ġke vin
Ġcle ared
Ġdistrict s
st ay
Ġintellig ence
wom an
Ġtr ace
Ġ7 0
Ġ197 5
Ġbell s
Ġb our
Ġas hore
Ġgl ob
Ġpol ite
Ġimp act
Ġbas is
Ġtick ets
Ġli p
ass es
Ġlevel s
Ġf uel
on ge
ow a
Ġint ention
Ġvol can
Ġprogram s
l ap
iz z
Ġfr ances
Ġfl ow
Ġrece i
whis pering
Ġper cy
Ġear l
e ed
Ã ´
ib ly
Ġmis erable
mum mie
Ġspend ing
Ġd iana
Ġt un
Ġc in
Ġl un
Ġcl are
Ġcl er
Ġ196 9
Ġdistri but
Ġsp ar
Ġsail ed
Ġrepresent atives
Ġt ak
Ġn asty
ra h
m or
in ea
Ġsh ots
Ġvill ages
Ġattack s
Ġinstr ument
pl aces
Ġed itor
Ġhi red
Ġun happy
Ġsw ept
Ġchar ged
Ġref ers
Ġarg ument
Ġor chest
Ġdes erve
Ġs unny
Ġj ord
Ġ197 3
Ġorgan is
en ess
Ġsc rap
Ġfl esh
Ġarri ve
Ġell ie
Ġcomp osed
m ade
Ġcons ist
Ġla wn
Ġcho p
Ġsac red
s we
ol k
Ġchallen ge
Ġr oo
Ġtr ot
Ġim it
Ġa is
Ġste ep
Ġlo ver
Ġig no
m ates
p iece
Ġd allas
ck er
Ġk aren
Ġcl aus
pl ess
Ġshi r
Ġdraw s
bu ild
Ġd art
ve t
Ġhar bor
x y
Ġu lt
ky o
Ġbrazil ian
Ġmerc hant
for ce
Ġrat tle
Ġlaun ched
d an
Ġhe e
Ġliber ty
Ġkenn eth
4 9
l k
Ġbe ef
Ġest im
Ġstudy ing
m ble
ul s
Ġrob inson
Ġthreat ened
Ġregard ed
ĠâĢľ âĢĺ
Ġtou ches
Ġext ended
Ġinvestig ation
k im
l ife
Ġk elly
Ġam anda
Ġjo int
Ġbe ard
Ġgr an
Ã ¦
Ġlar ry
Ġreco vered
Ġno on
Ġfound ation
Ġhop es
Ġenjo ying
Ġviol ent
Ġk a
Ġlaw rence
Ġox y
Ġlo ire
Ġgr ade
Ġso b
Ġkick ed
Ġp anc
Ġchan ces
Ġpat ients
ag ger
Ġlight ning
Ġsil k
Ġengine er
