{"<pad>":0,"<s>":1,"</s>":2,"<unk>":3,"!":4,"\"":5,"#":6,"$":7,"%":8,"&":9,"'":10,"(":11,")":12,"*":13,"+":14,",":15,"-":16,".":17,"/":18,"0":19,"1":20,"2":21,"3":22,"4":23,"5":24,"6":25,"7":26,"8":27,"9":28,":":29,";":30,"<":31,"=":32,">":33,"?":34,"@":35,"[":36,"\\":37,"]":38,"^":39,"_":40,"`":41,"a":42,"b":43,"c":44,"d":45,"e":46,"f":47,"g":48,"h":49,"i":50,"j":51,"k":52,"l":53,"m":54,"n":55,"o":56,"p":57,"q":58,"r":59,"s":60,"t":61,"u":62,"v":63,"w":64,"x":65,"y":66,"z":67,"{":68,"|":69,"}":70,"~":71,"¡":72,"¢":73,"£":74,"¤":75,"¥":76,"¦":77,"§":78,"¨":79,"©":80,"ª":81,"«":82,"¬":83,"®":84,"¯":85,"°":86,"±":87,"²":88,"³":89,"´":90,"µ":91,"¶":92,"·":93,"¸":94,"¹":95,"º":96,"»":97,"¼":98,"½":99,"¾":100,"¿":101,"Â":102,"Ã":103,"Ä":104,"Å":105,"Æ":106,"Ç":107,"È":108,"É":109,"Ê":110,"Ë":111,"Ì":112,"Ö":113,"×":114,"Ø":115,"Ù":116,"Û":117,"à":118,"á":119,"â":120,"ã":121,"ê":122,"î":123,"ï":124,"ð":125,"ó":126,"ô":127,"ĉ":128,"Ġ":129,"ġ":130,"Ģ":131,"ģ":132,"Ĥ":133,"ĥ":134,"Ħ":135,"ħ":136,"Ĩ":137,"ĩ":138,"Ī":139,"ī":140,"Ĭ":141,"ĭ":142,"Į":143,"į":144,"İ":145,"ı":146,"Ĳ":147,"ĳ":148,"Ĵ":149,"ĵ":150,"Ķ":151,"ķ":152,"ĸ":153,"Ĺ":154,"ĺ":155,"Ļ":156,"ļ":157,"Ľ":158,"ľ":159,"Ŀ":160,"ŀ":161,"Ł":162,"ł":163,"Ń":164,"Ġt":165,"he":166,"Ġa":167,"in":168,"Ġw":169,"Ġthe":170,"Ġs":171,"Ġ*":172,"ou":173,"re":174,"Ġi":175,"ha":176,"Ġo":177,"hi":178,"Ġb":179,"ot":180,"Ġm":181,"Ġc":182,"er":183,"nd":184,"Ġd":185,"Ġf":186,"Ġy":187,"on":188,"ing":189,"Ġp":190,"ll":191,"Ġto":192,"mot":193,"Ġg":194,"Ġyou":195,"an":196,"Ġl":197,"ed":198,"es":199,"or":200,"en":201,"hat":202,"Ġand":203,"Ġn":204,"chi":205,"ar":206,"it":207,"at":208,"Ġin":209,"Ġof":210,"Ġhe":211,"as":212,"om":213,"Ġit":214,"ow":215,"'s":216,"Ġha":217,"le":218,"st":219,"ve":220,"Ġon":221,"ay":222,"et":223,"Ġthat":224,"Ġbe":225,"ri":226,"Ġe":227,"gh":228,"Ġwe":229,"se":230,"his":231,"Ġu":232,"Ġis":233,"al":234,"id":235,"oo":236,"ld":237,"ut":238,"ic":239,"Ġwas":240,"ad":241,"Ġk":242,"Ġre":243,"ac":244,"'t":245,"Ġh":246,"Ġst":247,"ver":248,"Ġ=":249,"Ġth":250,"Ġfor":251,"Ġdo":252,"ght":253,"..":254,"is":255,"ke":256,"ro":257,"ly":258,"ent":259,"ch":260,"am":261,"ir":262,"ion":263,"out":264,"Ġj":265,"Ġan":266,"Ġme":267,"ith":268,"Ġ\"":269,"ea":270,"âĢ":271,"Ġli":272,"Ġwith":273,"Ġgo":274,"Ġ[":275,"her":276,"Ġse":277,"Ġas":278,"and":279,"all":280,"ome":281,"Ġthis":282,"ur":283,"Ġat":284,"Ġnot":285,"Ġthey":286,"Ġwhat":287,"ould":288,"ce":289,"Ġhave":290,"ill":291,"ter":292,"Ġr":293,"Ġare":294,"Ġshe":295,"Ġkn":296,"Ġhi":297,"Ġso":298,"ook":299,"Ġ-":300,"ho":301,"Ġthere":302,"ust":303,"im":304,"Ġhis":305,"un":306,"ant":307,"Ġne":308,"ct":309,"um":310,"Ġone":311,"Ġcan":312,"ain":313,"Ġno":314,"Ġbut":315,"Ġdon":316,"Ġher":317,"Ġwhe":318,"il":319,"Ġfr":320,"Ġall":321,"Ġknow":322,"Ġup":323,"au":324,"Ġyour":325,"xx":326,"eah":327,"...":328,"Ġmy":329,"pp":330,"Ġmo":331,"Ġde":332,"Ġhad":333,"ge":334,"ck":335,"Ġsa":336,"us":337,"Ġal":338,"ie":339,"our":340,"ell":341,"ab":342,"Ġlike":343,"ack":344,"Ġout":345,"inv":346,"op":347,"Ġri":348,"Ġ1":349,"Ġab":350,"th":351,"Ġpl":352,"ood":353,"Ġhim":354,"Ġget":355,"oh":356,"the":357,"ry":358,"ink":359,"red":360,"Ġsu":361,"Ġfrom":362,"ake":363,"'re":364,"you":365,"art":366,"no":367,"Ġor":368,"ers":369,"Ġv":370,"what":371,"very":372,"ig":373,"ol":374,"qu":375,"Ġdid":376,"Ġsee":377,"han":378,"ight":379,"ul":380,"Ġby":381,"ra":382,"ation":383,"Ġwere":384,"one":385,"ound":386,"ess":387,"Ġsp":388,"est":389,"Ġcom":390,"Ġbo":391,"ind":392,"ame":393,"'m":394,"Ġsh":395,"Ġsome":396,"fat":397,"Ġwhi":398,"Ġthem":399,"ard":400,"Ġlook":401,"Ġif":402,"na":403,"Ġwor":404,"ong":405,"own":406,"Ġjust":407,"el":408,"itt":409,"Ġhere":410,"Ġgot":411,"ak":412,"Ġabout":413,"yeah":414,"Ġthen":415,"res":416,"Ġthink":417,"ast":418,"Ġwhen":419,"nt":420,"ally":421,"if":422,"Ġ2":423,"ĠâĢ":424,"Ġwho":425,"Ġnow":426,"Ġwant":427,"Ġman":428,"Ġcon":429,"Ġsaid":430,"ive":431,"Ġex":432,"'ll":433,"os":434,"ap":435,"Ġ(":436,"].":437,"Ġwould":438,"Ġro":439,"ist":440,"Ġright":441,"ate":442,"ep":443,"Ġany":444,"Ġwill":445,"Ġar":446,"Ġtw":447,"ber":448,"em":449,"ĠĠ":450,"Ġtim":451,"Ġus":452,"Ġcl":453,"fe":454,"ough":455,"that":456,"xxx":457,"Ġtr":458,"ine":459,"Ġpro":460,"Ġsay":461,"kay":462,"ven":463,"are":464,"ort":465,"hing":466,"ĠâĢľ":467,"Ġle":468,"Ġlo":469,"Ġwell":470,"ice":471,"âĢĿ":472,"ag":473,"ittle":474,"Ġint":475,"we":476,"Ġag":477,"Ġgood":478,"Ġdown":479,"ore":480,"other":481,".\"":482,"Ġlittle":483,"ther":484,"ous":485,"Ġbr":486,"Ġback":487,"âĢĻ":488,"Ġhow":489,"way":490,"hy":491,"Ġput":492,"Ġco":493,"Ġpe":494,"ies":495,"Ġaf":496,"Ġgr":497,"ause":498,"Ġam":499,"'ve":500,"Ġgoing":501,"Ġfe":502,"ick":503,"yes":504,"Ġtime":505,"Ġcould":506,"Ġbeen":507,"Ġover":508,"Ġoff":509,"Ġmore":510,"uh":511,"Ġcome":512,"Ġbl":513,"Ġhas":514,"Ġtheir":515,"dy":516,"Ġqu":517,"--":518,"Ġun":519,"Ġchi":520,"ace":521,"Ġ19":522,"ide":523,"so":524,"Ġvery":525,"Ġwhich":526,"Ġtoo":527,"lf":528,"cause":529,"Ġer":530,"Ġ20":531,"Ġen":532,"Ġtwo":533,"ity":534,"here":535,"Ġyeah":536,"Ġother":537,"my":538,"end":539,"ree":540,"Ġplay":541,"Ġthan":542,"Ġ'":543,"Ġwhere":544,"ings":545,"Ġcha":546,"ft":547,"Ġoh":548,"ure":549,",\"":550,"ose":551,"alk":552,"Ġcar":553,"pe":554,"Ġlet":555,"reat":556,"Ġsc":557,"ish":558,"age":559,"urn":560,"orn":561,"Ġxxx":562,"ment":563,"hed":564,"ear":565,"omet":566,"Ġpo":567,"Ġmar":568,"ps":569,"nder":570,"Ġinto":571,"Ġfl":572,"ud":573,"ian":574,"ought":575,"ty":576,"Ġagain":577,"ople":578,"onna":579,"Ġafter":580,"do":581,"Ġway":582,"be":583,"Ġfir":584,"ass":585,"Ġpeople":586,"ade":587,"Ġsomet":588,"Ġgonna":589,"Ġdoes":590,"ue":591,"ia":592,"Ġmake":593,"pl":594,"uck":595,"iv":596,"Ġtake":597,"ble":598,"Ġwork":599,"Ġfirst":600,"ire":601,"Ġbet":602,"Ġtell":603,"ater":604,"Ġday":605,"ase":606,"Ġcall":607,"Ġyes":608,"ite":609,"Ġsha":610,"ount":611,"Ġpart":612,"te":613,"iss":614,"Ġevery":615,"bo":616,"Ġte":617,"int":618,"Ġmu":619,"Ġad":620,"okay":621,"per":622,"right":623,"hm":624,"Ġhand":625,"Ġour":626,"Ġmean":627,"Ġthese":628,"Ġonly":629,"co":630,"Ġneed":631,"pt":632,"Ġmay":633,"wn":634,"ull":635,"Ġnew":636,"self":637,"ary":638,"cl":639,"Ġgu":640,"ord":641,"Ġthr":642,"fore":643,"act":644,"Ġpr":645,"where":646,"Ġfo":647,"ving":648,"there":649,"Ġshould":650,"ff":651,"Ġboy":652,"ren":653,"Ġch":654,"Ġbecause":655,"ci":656,"ouse":657,"Ġpre":658,"Ġsm":659,"Ġmr":660,"Ġho":661,"Ġdidn":662,"ved":663,"ach":664,"mp":665,"de":666,"Ġbig":667,"day":668,"augh":669,"Ġreally":670,"par":671,"ance":672,"Ġmuch":673,"Ġsomething":674,"ang":675,"iz":676,"able":677,"ress":678,"les":679,"Ġwhy":680,"Ġmade":681,"Ġhapp":682,"but":683,"Ġac":684,"ady":685,"ool":686,"Ġyear":687,"ather":688,"Ġlong":689,"well":690,"ting":691,"ne":692,"Ġdis":693,"ub":694,"Ġbefore":695,"Ġhel":696,"thing":697,"av":698,"man":699,"Ġgir":700,"Ġper":701,"ah":702,"ĠĠĠĠ":703,"ise":704,"hes":705,"Ġjo":706,"Ġaway":707,"Ġtalk":708,"ated":709,"ory":710,"Ġunder":711,"Ġold":712,"ex":713,"get":714,"Ġcomp":715,"Ġwent":716,"anna":717,"Ġgirl":718,"ied":719,"Ġbu":720,"Ġact":721,"Ġhar":722,"Ġokay":723,"Ġrem":724,"Ġchild":725,"ions":726,"Ġwr":727,"'d":728,"look":729,"ence":730,"Ġnever":731,"ward":732,"Ġthree":733,"ks":734,"Ġgreat":735,"Ġapp":736,"Ġcame":737,"ves":738,"ix":739,"Ġeven":740,"Ġhouse":741,"Ġalso":742,"Ġke":743,"Ġcr":744,"Ġhome":745,"Ġthose":746,"Ġmom":747,"gg":748,"can":749,"Ġdoing":750,"Ġel":751,"Ġhead":752,"Ġturn":753,"Ġmany":754,"riend":755,"let":756,"tain":757,"atch":758,"ful":759,"Ġple":760,"?\"":761,"Ġthought":762,"Ġmin":763,"ried":764,"Ġlea":765,"Ġask":766,"Ġsl":767,"up":768,"ma":769,"Ġbook":770,"ds":771,"Ġwanna":772,"Ġeat":773,"Ġbab":774,"00":775,"Ġser":776,"Ġcount":777,"Ġgive":778,"Ġthings":779,"Ġthing":780,"Ġthrough":781,"Ġanother":782,"Ġmust":783,"ens":784,"ors":785,"Ġstill":786,"Ġdr":787,"Ġcomm":788,"Ġfind":789,"exp":790,"ons":791,"ans":792,"Ġche":793,"Ġwa":794,"Ġstart":795,"Ġear":796,"Ġ%":797,"akes":798,"Ġhelp":799,"come":800,"Ġlast":801,"mo":802,"Ġbit":803,"Ġbel":804,"Ġgl":805,"laugh":806,"Ġstr":807,"add":808,"ict":809,"Ġcont":810,"land":811,"ened":812,"Ġwon":813,"Ġfound":814,"now":815,"ys":816,"ark":817,"ily":818,"ect":819,"Ġchan":820,"Ġres":821,"Ġsho":822,"Ġsch":823,"Ġcalled":824,"Ġshow":825,"Ġmother":826,"Ġbot":827,".âĢĿ":828,"Ġlove":829,"Ġop":830,"aking":831,"Ġnight":832,"ath":833,"Ġits":834,"Ġdone":835,"Ġtry":836,"ss":837,"Ġmight":838,"mm":839,"ious":840,"Ġ201":841,"Ġlot":842,"ms":843,"li":844,"ail":845,"Ġmost":846,"ling":847,"unn":848,"air":849,"Ġname":850,"ummy":851,"xt":852,"Ġisn":853,"Ġuh":854,"ign":855,"ng":856,"Ġpri":857,"Ġdad":858,"Ġfriend":859,"body":860,"side":861,"ates":862,"aw":863,"Ġaround":864,"Ġbaby":865,"Ġcare":866,"ually":867,"Ġâ":868,"als":869,"Ġdif":870,"Ġmiss":871,"ock":872,"anc":873,"ple":874,"Ġsw":875,"Ġmon":876,"Ġwater":877,"Ġsure":878,".]":879,"Ġwar":880,"Ġown":881,"Ġend":882,"Ġcol":883,"Ġkind":884,"ited":885,"huh":886,"Ġwhile":887,"they":888,"Ġnor":889,"Ġbetter":890,"by":891,"Ġerm":892,"mhm":893,"Ġdes":894,"oney":895,"Ġbre":896,"this":897,"Ġpres":898,"Ġfin":899,"Ġkeep":900,"Ġschool":901,"Ġfour":902,"Ġind":903,"Ġcour":904,",âĢĿ":905,"Ġplace":906,"not":907,"Ġbeing":908,"ember":909,"Ġnice":910,"Ġsuch":911,"Ġlife":912,"ank":913,"me":914,"Ġatt":915,"how":916,"led":917,"Ġyears":918,"Ġused":919,"rent":920,"Ġcap":921,"Ġfeel":922,"Ġchar":923,"for":924,"vers":925,"to":926,"!\"":927,"Ġeng":928,"Ġlooks":929,"she":930,"Ġplease":931,"ww":932,"Ġmat":933,"med":934,"ways":935,"Ġfar":936,"ip":937,"Ġfather":938,"ts":939,"Ġanything":940,"Ġma":941,"Ġnext":942,"Ġdoesn":943,"laughs":944,"Ġelse":945,"Ġsame":946,"Ġbeg":947,"br":948,"Ġsupp":949,"Ġbus":950,"Ġworld":951,"Ġroom":952,"Ġpol":953,"ince":954,"Ġele":955,"Ġ3":956,"Ġ.":957,"Ġshi":958,"Ġset":959,"Ġimp":960,"Ġgre":961,"lo":962,"outh":963,"inn":964,"Ġrep":965,"gr":966,"ug":967,"ical":968,"Ġsaw":969,"ild":970,"Ġcle":971,"mer":972,"orry":973,"Ġmen":974,"Ġhold":975,"der":976,"bab":977,"ave":978,"Ġtold":979,"ute":980,"Ġleft":981,"Ġsit":982,"ations":983,"uc":984,"go":985,"Ġalways":986,"ump":987,"eric":988,"ta":989,"aught":990,"Ġwom":991,"Ġwait":992,"who":993,"pped":994,"why":995,"Ġwee":996,"ction":997,"Ġsec":998,"ition":999,"Ġtri":1000,"Ġfam":1001,"don":1002,"ars":1003,"Ġball":1004,"ung":1005,"Ġuse":1006,"Ġob":1007,"ris":1008,"Ġbir":1009,"Ġread":1010,"Ġunt":1011,"Ġever":1012,"Ġnum":1013,"row":1014,"Ġdiffe":1015,"ï¿":1016,"ï¿½":1017,"ins":1018,"Ġz":1019,"rest":1020,"ew":1021,"ream":1022,"leep":1023,"oss":1024,"Ġacc":1025,"Ġpers":1026,"Ġrec":1027,"Ġpret":1028,"ever":1029,"io":1030,"Ġspe":1031,"Ġpoint":1032,"vel":1033,"Ġnothing":1034,"ult":1035,"Ġdoor":1036,"Ġtook":1037,"ger":1038,"Ġreg":1039,"Ġthough":1040,"Ġsur":1041,"Ġwalk":1042,"oun":1043,"Ġsing":1044,"Ġgone":1045,"Ġbed":1046,"cc":1047,"raw":1048,"Ġyoung":1049,"hen":1050,"ness":1051,"Ġameric":1052,"Ġhard":1053,"ents":1054,"Ġdist":1055,"Ġopen":1056,"Ġbox":1057,"Ġret":1058,"Ġenough":1059,"Ġcoming":1060,"sis":1061,"Ġlist":1062,"Ġred":1063,"Ġthank":1064,"Ġhear":1065,"Ġ_":1066,"cond":1067,"Ġmot":1068,"Ġfive":1069,"Ġmoney":1070,"Ġ200":1071,"mber":1072,"cha":1073,"Ġgoes":1074,"Ġmorn":1075,"Ġsays":1076,"Ġvo":1077,"Ġmil":1078,"Ġhur":1079,"Ġtom":1080,"llow":1081,"Ġsk":1082,"Ġgen":1083,"Ġuntil":1084,"Ġside":1085,"Ġed":1086,"ton":1087,"Ġgod":1088,"Ġlight":1089,"Ġstand":1090,"Ġum":1091,"Ġthi":1092,"ished":1093,"gether":1094,"Ġsecond":1095,"Ġreal":1096,"Ġmus":1097,"Ġter":1098,"Ġeyes":1099,"Ġbest":1100,"Ġpass":1101,"tea":1102,"Ġbro":1103,"Ġkill":1104,"Ġonce":1105,"Ġface":1106,"Ġsorry":1107,"Ļª":1108,"amp":1109,"Ġsy":1110,"Ġmorning":1111,"dad":1112,"Ġcat":1113,"Ġinter":1114,"Ġwind":1115,"ces":1116,"ross":1117,"Ġquite":1118,"Ġcity":1119,"Ġent":1120,"po":1121,"Ġbelie":1122,"Ġdog":1123,"Ġair":1124,"Ġasked":1125,"Ġsix":1126,"\".":1127,"rist":1128,"ont":1129,"Ġboth":1130,"Ġstay":1131,"Ġnear":1132,"pect":1133,"Ġwo":1134,"Ġev":1135,"Ġlooking":1136,"Ġsound":1137,"Ġfire":1138,"Ġfoot":1139,"Ġeach":1140,"ower":1141,"Ġhey":1142,"Ġyet":1143,"ellow":1144,"ope":1145,"Ġste":1146,"Ġseen":1147,"Ġsmall":1148,"cle":1149,"Ġstop":1150,"Ġcourse":1151,"ister":1152,"und":1153,"put":1154,"Ġpick":1155,"Ġbar":1156,"ile":1157,"Ġround":1158,"Ġid":1159,"ret":1160,"Ġbri":1161,"bro":1162,"mch":1163,"Ġsoon":1164,"Ġdifferent":1165,"ten":1166,"Ġfew":1167,"az":1168,"ased":1169,"ĠâĻª":1170,"Ġmm":1171,"Ġhands":1172,"Ġtogether":1173,"Ġhigh":1174,"ange":1175,"Ġbad":1176,"Ġdri":1177,"ible":1178,"Ġpie":1179,"tle":1180,"Ġtoday":1181,"Ġlar":1182,"Ġfall":1183,"Ġwatch":1184,"Ġremember":1185,"Ġshall":1186,"Ġinst":1187,"Ġhat":1188,"Ġchildren":1189,"ib":1190,"Ġrel":1191,"une":1192,"Ġinv":1193,"did":1194,"uff":1195,"ired":1196,"eak":1197,"ident":1198,"Ġleave":1199,"ween":1200,"fta":1201,"ial":1202,"ational":1203,"Ġsir":1204,"llo":1205,"Ġking":1206,"Ġblack":1207,"Ġwithout":1208,"Ġknown":1209,"uring":1210,"Ġsleep":1211,"Ġupon":1212,"Ġgetting":1213,"Ġheard":1214,"aster":1215,"Ġdear":1216,"cal":1217,"Ġgrand":1218,"Ġcent":1219,"ef":1220,"Ġmind":1221,"Ġ202":1222,"Ġbetween":1223,"Ġpict":1224,"Ġpar":1225,"Ġperson":1226,"Ġdaddy":1227,"lic":1228,"Ġfollow":1229,"Ġrun":1230,"less":1231,"Ġpap":1232,"son":1233,"og":1234,"Ġpat":1235,"Ġnumber":1236,"Ġhimself":1237,"ctor":1238,"ures":1239,"Ġhafta":1240,"Ġtrain":1241,"Ġrest":1242,"Ġlater":1243,"),":1244,"mb":1245,"ph":1246,"Ġhalf":1247,"ries":1248,"ject":1249,"Ġmet":1250,"Ġhaving":1251,"Ġhor":1252,"ane":1253,"Ġmrs":1254,"Ġstory":1255,"ason":1256,").":1257,"vie":1258,"ating":1259,"Ġdep":1260,"Ġ4":1261,"Ġlooked":1262,"iet":1263,"ball":1264,"Ġeverything":1265,"Ġsince":1266,"Ġcons":1267,"unny":1268,"ared":1269,"ohn":1270,"Ġtra":1271,"Ġjack":1272,"Ġ18":1273,"dd":1274,"ets":1275,"fect":1276,"Ġhappened":1277,"Ġmove":1278,"ina":1279,"ines":1280,"Ġwanted":1281,"ames":1282,"Ġhaven":1283,"ular":1284,"most":1285,"Ġtop":1286,"Ġbec":1287,"Ġwhite":1288,"Ġflo":1289,"Ġdec":1290,"Ġdire":1291,"stand":1292,"gma":1293,"its":1294,"Ġmaybe":1295,"ows":1296,"ier":1297,"Ġans":1298,"aut":1299,"unt":1300,"Ġtalking":1301,"Ġsort":1302,"ched":1303,"sel":1304,"ters":1305,"Ġheart":1306,"Ġknew":1307,"Ġblue":1308,"ertain":1309,"ale":1310,"Ġalong":1311,"enn":1312,"sh":1313,"Ġboys":1314,"Ġanim":1315,"Ġready":1316,"ĠĠĠĠĠĠĠĠ":1317,"enty":1318,"Ġmummy":1319,"Ġlive":1320,"Ġju":1321,"Ġunited":1322,"Ġsat":1323,"rew":1324,"Ġtable":1325,"Ġpretty":1326,"Ġla":1327,"Ġswe":1328,"Ġcut":1329,"ready":1330,"ann":1331,"eter":1332,"Ġass":1333,"Ġpop":1334,"any":1335,"Ġagainst":1336,"Ġdays":1337,"Ġspo":1338,"Ġph":1339,"?âĢĿ":1340,"vo":1341,"ye":1342,"Ġgave":1343,"Ġamerican":1344,"ush":1345,"Ġmaking":1346,"Ġbreak":1347,"Ġkid":1348,"Ġjohn":1349,"Ġap":1350,"Ġhour":1351,"Ġchair":1352,"osed":1353,"ics":1354,"Ġfamily":1355,"Ġsub":1356,"Ġtown":1357,"ster":1358,"Ġcoll":1359,"Ġland":1360,"sha":1361,"Ġnat":1362,"Ġ199":1363,"cial":1364,"Ġmag":1365,"Ġexc":1366,"Ġbring":1367,"Ġparty":1368,"Ġcho":1369,"Ġduring":1370,"ged":1371,"Ġ5":1372,"Ġchrist":1373,"ches":1374,"âĢĶ":1375,"Ġsil":1376,"see":1377,"Ġson":1378,"ife":1379,"ork":1380,"Ġactually":1381,"Ġthir":1382,"Ġwasn":1383,"Ġhot":1384,"ash":1385,"Ġadd":1386,"Ġbrother":1387,"cept":1388,"Ġgener":1389,"Ġborn":1390,"ual":1391,"Ġdrink":1392,"Ġdied":1393,"Ġstates":1394,"\",":1395,"Ġdoll":1396,"Ġbelieve":1397,"Ġsong":1398,"Ġteam":1399,"Ġreturn":1400,"Ġnoise":1401,"ully":1402,"read":1403,"iness":1404,"uss":1405,"urs":1406,"Ġsaying":1407,"Ġsqu":1408,"Ġlaugh":1409,"mar":1410,"uary":1411,"clud":1412,"Ġstate":1413,"Ġgreen":1414,"Ġgi":1415,"wards":1416,"vern":1417,"Ġwhole":1418,"Ġsim":1419,"Ġfood":1420,"good":1421,"ced":1422,"Ġger":1423,"ision":1424,"Ġbuild":1425,"Ġstarted":1426,"Ġinte":1427,"ted":1428,"ered":1429,"Ġwonder":1430,"----":1431,"Ġmatter":1432,"Ġmoment":1433,"Ġgame":1434,"uth":1435,"zz":1436,"Ġtre":1437,"ru":1438,"ants":1439,"bably":1440,"Ġhair":1441,"Ġcup":1442,"Ġalmost":1443,"Ġfriends":1444,"Ġdro":1445,"Ġnorth":1446,"ï¿½ï¿½":1447,"Ġge":1448,"Ġclose":1449,"Ġtrying":1450,"ither":1451,"Ã©":1452,"Ġmeet":1453,"Ġwouldn":1454,"Ġah":1455,"Ġes":1456,"Ġpay":1457,"Ġquest":1458,"Ġwoman":1459,"oup":1460,"Ġeight":1461,"igh":1462,"Ġcomes":1463,"imes":1464,"Ġmed":1465,"Ġem":1466,"Ġfloor":1467,"ots":1468,"Ġmusic":1469,"Ġsign":1470,"ustr":1471,"hip":1472,"Ġword":1473,"Ġfine":1474,"Ġleg":1475,"Ġfeet":1476,"omas":1477,"Ġinterest":1478,"||":1479,"orrow":1480,"Ġplaying":1481,"Ġtimes":1482,"cess":1483,"Ġcountry":1484,"Ġunderstand":1485,"just":1486,"arn":1487,"Ġalready":1488,"Ġspeak":1489,"ined":1490,"Ġposs":1491,"ying":1492,"Ġeas":1493,"Ġra":1494,"Ġaw":1495,"Ġbob":1496,"aken":1497,"aces":1498,"illy":1499,"Ġpull":1500,"Ġexp":1501,"ding":1502,"Ġwrong":1503,"Ġhuh":1504,"key":1505,"Ġbeaut":1506,"Ġbecame":1507,"Ġjob":1508,"Ġbegan":1509,"Ġsent":1510,"Ġten":1511,"Ġpain":1512,"Ġrock":1513,"Ġben":1514,"Ġlead":1515,"jo":1516,"Ġhum":1517,"Ġmark":1518,"Ġgirls":1519,"Ġprobably":1520,"kes":1521,"Ġconf":1522,"Ġlisten":1523,"Ġbear":1524,"Ġcontin":1525,"Ġgovern":1526,"unk":1527,"ield":1528,"ric":1529,"ring":1530,"hind":1531,"Ġminute":1532,"ee":1533,"Ġbat":1534,"Ġhappy":1535,"than":1536,"undred":1537,"Ġlost":1538,"âĮ":1539,"Ġmid":1540,"Ġfact":1541,"Ġguess":1542,"Ġdraw":1543,"Ġcal":1544,"ama":1545,"child":1546,"Ġfull":1547,"Ġhundred":1548,"Ġtou":1549,"che":1550,"Ġquick":1551,"Ġadv":1552,"Ġfight":1553,"www":1554,"Ġref":1555,"Ġfront":1556,"rap":1557,"Ġinclud":1558,"Ġhope":1559,"got":1560,"Ġmommy":1561,"Ġfore":1562,"Ġlady":1563,"ues":1564,"cted":1565,"Ġ198":1566,"ital":1567,"Ġcook":1568,"Ġpaper":1569,"Ġplayed":1570,"ives":1571,"ages":1572,"Ġpicture":1573,"Ġdead":1574,"Ġvoice":1575,"fch":1576,"cer":1577,"wer":1578,"cy":1579,"Ġpur":1580,"sing":1581,"Ġgotta":1582,"Ġcertain":1583,"Ġrecord":1584,"Ġcur":1585,"nan":1586,"ron":1587,"Ġidea":1588,"ently":1589,"Ġdeath":1590,"form":1591,"Ġ6":1592,"Ġoffic":1593,"oud":1594,"Ġbehind":1595,"ities":1596,"Ġpoor":1597,"Ġcolor":1598,"elt":1599,"ize":1600,"Ġfun":1601,"ape":1602,"Ġpu":1603,"Ġmakes":1604,"Ġsouth":1605,"Ġsto":1606,"then":1607,"ense":1608,"!âĢĿ":1609,"Ġext":1610,"Ġshort":1611,"Ġexpl":1612,"gy":1613,"because":1614,"ats":1615,"Ġbrought":1616,"Ġcounty":1617,"Ġart":1618,"aul":1619,"ĠâĢĵ":1620,"ken":1621,"Ġsum":1622,"Ġform":1623,"Ġaren":1624,"Ġbas":1625,"Ġstuff":1626,"hey":1627,"Ġcaptain":1628,"Ġturned":1629,"app":1630,"airs":1631,"sc":1632,"Ġsun":1633,"sp":1634,"ony":1635,"like":1636,"Ġmovie":1637,"Ġprod":1638,"use":1639,"Ġvis":1640,"Ġsometimes":1641,"Ġwood":1642,"Ġmic":1643,"oth":1644,"Ġmeans":1645,"Ġseemed":1646,"Ġroad":1647,"Ġcor":1648,"ention":1649,"lish":1650,"Ġweek":1651,"Ġfro":1652,"Ġmain":1653,"Ġnational":1654,"ii":1655,"ury":1656,"een":1657,"19":1658,"Ġ7":1659,"Ġmouth":1660,"Ġim":1661,"Ġoutside":1662,"Ġmer":1663,"eth":1664,"tw":1665,"Ġmonth":1666,"Ġstick":1667,"Ġdou":1668,"Ġoften":1669,"lly":1670,"Ġhowever":1671,"Ġproble":1672,"unch":1673,"mom":1674,"Ġuni":1675,"haps":1676,"Ġinc":1677,"ese":1678,"Ġ8":1679,"Ġcouldn":1680,"Ġcry":1681,"utes":1682,"Ġwants":1683,"Ġsn":1684,"ided":1685,"Ġrepl":1686,"Ġdar":1687,"Ġhorse":1688,"ured":1689,"ised":1690,"Ġhist":1691,"Ġable":1692,"Ġfif":1693,"Ġdi":1694,"bit":1695,"Ġones":1696,"Ġlate":1697,"room":1698,"ments":1699,"Ġtaken":1700,"whi":1701,"Ġserv":1702,"Ġline":1703,"iful":1704,"Ġtele":1705,"head":1706,"Ġhon":1707,"Ġpiece":1708,"Ġsea":1709,"Ġwin":1710,"Ġty":1711,"mummy":1712,"Ġ197":1713,"dge":1714,"Ġ,":1715,"gan":1716,"thank":1717,"Ġfuck":1718,"Ġyourself":1719,"ises":1720,"Ġguy":1721,"Ġwords":1722,"Ġlaw":1723,"Ġless":1724,"col":1725,"Ġimport":1726,"Ġdark":1727,"Ġfell":1728,"Ġmine":1729,"Ġpub":1730,"Ġstud":1731,"inner":1732,"Ġtrans":1733,"Ġearly":1734,"Ġsal":1735,"Ġlarge":1736,"bed":1737,"Ġbusiness":1738,"Ġtaking":1739,"els":1740,"ik":1741,"Ġlearn":1742,"ards":1743,"Ġstar":1744,"dden":1745,"Ġgerman":1746,"Ġage":1747,"Ġtill":1748,"Ġda":1749,"ey":1750,"Ġdoctor":1751,"Ġprov":1752,"itting":1753,"Ġsomeone":1754,"ative":1755,"fully":1756,"Ġdress":1757,"ient":1758,"have":1759,"Ġann":1760,"Ġwomen":1761,"pat":1762,"Ġber":1763,"ones":1764,"Ġtree":1765,"Ġinside":1766,"Ġmyself":1767,"Ġstre":1768,"Ġhappen":1769,"bye":1770,"Ġcir":1771,"Ġpower":1772,"ized":1773,"Ġminutes":1774,"Ġthomas":1775,"Ġclass":1776,"Ġrather":1777,"more":1778,"selves":1779,"Ġcold":1780,"Ġtwenty":1781,"Ġbag":1782,"Ġwife":1783,"ze":1784,"Ġmill":1785,"car":1786,"Ġriver":1787,"fl":1788,"Ġpage":1789,"Ġhit":1790,"Ġcase":1791,"Ġprot":1792,"ming":1793,"Ġfelt":1794,"Ġrele":1795,"Ġran":1796,"adu":1797,"Ġdel":1798,"eng":1799,"pping":1800,"ney":1801,"Ġsweet":1802,"aim":1803,"Ġmad":1804,"bl":1805,"Ġtrou":1806,"Ġreac":1807,"ner":1808,"Ġ!":1809,"ific":1810,"Ġfair":1811,"Ġsand":1812,"arent":1813,"Ġmess":1814,"Ġorder":1815,"aughter":1816,"Ġtrue":1817,"Ġcamp":1818,"Ġprof":1819,"aus":1820,"born":1821,"Ġstrong":1822,"Ġarm":1823,"ator":1824,"Ġeither":1825,"Ġgiven":1826,"Ġbrown":1827,"Ġwall":1828,"Ġbeautiful":1829,"Ġbirth":1830,"Ġgroup":1831,"Ġothers":1832,"Ġ9":1833,"ime":1834,"Ġsister":1835,"umb":1836,"when":1837,"Ġphi":1838,"Ġsever":1839,"amed":1840,"Ġocc":1841,"Ġbody":1842,"Ġpresent":1843,"Ġhurt":1844,"anger":1845,"Ġchange":1846,"Ġtoys":1847,"Ġcompany":1848,"Ġclear":1849,"Ġenglish":1850,"Ġground":1851,"Ġhung":1852,"Ġmount":1853,"Ġill":1854,"Ġce":1855,"Ġfunny":1856,"ering":1857,"Ġseven":1858,"Ġalone":1859,"Ġwear":1860,"Ġjan":1861,"Ġago":1862,"Ġboat":1863,"Ġexam":1864,"Ġwh":1865,"Ġpast":1866,"Ġprom":1867,"Ġstep":1868,"Ġperhaps":1869,"rench":1870,"gin":1871,"Ġcorn":1872,"Ġseveral":1873,"Ġbur":1874,"Ġ196":1875,"Ġpot":1876,"Ġve":1877,"Ġfast":1878,"ides":1879,"unning":1880,"Ġgets":1881,"Ġblood":1882,"Ġgold":1883,"dle":1884,"com":1885,"Ġlay":1886,"Ġacross":1887,"shall":1888,"ls":1889,"Ġcou":1890,"Ġarea":1891,"Ġimportant":1892,"Ġmilk":1893,"Ġalright":1894,"Ġdistri":1895,"does":1896,"ote":1897,"Ġgrow":1898,"ept":1899,"Ġdepart":1900,"Ġje":1901,"Ġplan":1902,"Ġfree":1903,"Ġguys":1904,"Ġgun":1905,"Ġwish":1906,"Ġvill":1907,"Ġworking":1908,"Ġisland":1909,"Ġquestion":1910,"Ġleast":1911,"Ġfil":1912,"min":1913,"ffe":1914,"Ġfav":1915,"Ġcreat":1916,"Ġnin":1917,"000":1918,"Ġthanks":1919,"Ġ10":1920,"Ġwest":1921,"Ġdeal":1922,"Ġpresident":1923,"Ġcos":1924,"ians":1925,"ley":1926,"iting":1927,"ained":1928,"Ġdiv":1929,"gra":1930,"Ġbuy":1931,"Ġcried":1932,"Ġfootball":1933,"Ġanimals":1934,"cri":1935,"Ġunivers":1936,"Ġhello":1937,"vered":1938,"Ġmarch":1939,"Ġamong":1940,"Ġfing":1941,"Ġdef":1942,"Ġtea":1943,"Ġyellow":1944,"ists":1945,"tern":1946,"Ġbrit":1947,"uhhuh":1948,"may":1949,"oops":1950,"ience":1951,"Ġmaj":1952,"fort":1953,"Ġice":1954,"cks":1955,"Ġjump":1956,"Ġclean":1957,"Ġbra":1958,"Ġpen":1959,"Ġpark":1960,"Ġpos":1961,"ider":1962,"Ġins":1963,"Ġwat":1964,"uro":1965,"Ġfig":1966,"Ġtoy":1967,"Ġpolit":1968,"Ġfrance":1969,"Ġfish":1970,"Ġclot":1971,"mon":1972,"Ġsomebody":1973,"men":1974,"Ġdam":1975,"Ġroll":1976,"ax":1977,"ety":1978,"ately":1979,"ove":1980,"Ġcross":1981,"Ġsold":1982,"Ġgra":1983,"Ġopp":1984,"Ġglad":1985,"Ġlang":1986,"Ġdinner":1987,"Ġfrench":1988,"Ġthrow":1989,"Ġrece":1990,"bert":1991,"Ġliving":1992,"20":1993,"]?":1994,"Ġchur":1995,"Ġherself":1996,"rence":1997,"Ġx":1998,"Ġtried":1999,"Ġstor":2000,"Ġfinished":2001,"itc":2002,"two":2003,"Ġquiet":2004,"iously":2005,"Ġsam":2006,"Ġstra":2007,"gn":2008,"king":2009,"Ġalb":2010,"ains":2011,"Ġfellow":2012,"Ġgeneral":2013,"Ġtem":2014,"stem":2015,"val":2016,"olog":2017,"Ġfrank":2018,"Ġthinking":2019,"Ġband":2020,"Ġclub":2021,"Ġsudden":2022,"Ġbill":2023,"Ġfly":2024,"Ġcoun":2025,"Ġlad":2026,"ilt":2027,"fic":2028,"Ġsend":2029,"Ġtakes":2030,"Ġgovernment":2031,"Ġ2020":2032,"Ġreason":2033,"Ġexpect":2034,"Ġchap":2035,"Ġkilled":2036,"cent":2037,"ford":2038,"eared":2039,"Ġconst":2040,"Ġchance":2041,"Ġpost":2042,"ike":2043,"ued":2044,"Ġmur":2045,"oof":2046,"att":2047,"Ġsurp":2048,"aced":2049,"Ġjap":2050,"Ġhistory":2051,"acher":2052,"ham":2053,"Ġbooks":2054,"Ġegg":2055,"cil":2056,"Ġpartic":2057,"Ġphone":2058,"ste":2059,"Ġsystem":2060,"Ġyork":2061,"Ġcarry":2062,"Ġheld":2063,"Ġusually":2064,"Ġbird":2065,"ousand":2066,"ges":2067,"Ġallow":2068,"iter":2069,"Ġcri":2070,"Ġcam":2071,"Ġseries":2072,"Ġcond":2073,"Ġring":2074,"Ġwrite":2075,"Ġpig":2076,"Ġearth":2077,"Ġrunning":2078,"Ġdarling":2079,"Ġthousand":2080,"Ġsitting":2081,"tom":2082,"Ġori":2083,"Ġrom":2084,"hel":2085,"Ġbecome":2086,"Ġstri":2087,"Ġkept":2088,"Ġport":2089,"ution":2090,"Ġjim":2091,"Ġcra":2092,"hold":2093,"Ġspecial":2094,"Ġtrouble":2095,"Ġfre":2096,"alright":2097,"Ġwindow":2098,"Ġstreet":2099,"Ġok":2100,"ances":2101,"Ġ?":2102,"iving":2103,"Ġlow":2104,"Ġshut":2105,"ai":2106,"Ġcow":2107,"uct":2108,"raid":2109,"ery":2110,"Ġtouch":2111,"sy":2112,"Ġtruck":2113,"Ġlived":2114,"rop":2115,"Ġ195":2116,"bs":2117,"ald":2118,"Ġsoft":2119,"Ġanswer":2120,"Ġbirthday":2121,"Ġstood":2122,"Ġuncle":2123,"avy":2124,"ril":2125,"Ġship":2126,"Ġobject":2127,"Ġnose":2128,"Ġgard":2129,"Ġjapan":2130,"Ġeverybody":2131,"Ġfrog":2132,"Ġlie":2133,"Ġattack":2134,"Ġsus":2135,"ked":2136,"cds":2137,"ived":2138,"Ġbow":2139,"Ġdra":2140,"ana":2141,"Ġclim":2142,"oop":2143,"arch":2144,"band":2145,"Ġgeor":2146,"loi":2147,"mas":2148,"Ġ17":2149,"Ġbath":2150,"inning":2151,"Ġmum":2152,"Ġ#":2153,"Ġsuper":2154,"Ġletter":2155,"Ġest":2156,"Ġrob":2157,"Ġ15":2158,"Ġkiss":2159,"Ġdet":2160,"itten":2161,"osp":2162,"wered":2163,"Ġreplied":2164,"Ġcheck":2165,"teen":2166,"Ġreport":2167,"Ġfix":2168,"Ġnine":2169,"Ġton":2170,"ism":2171,"Ġlangu":2172,"Ġtomorrow":2173,"Ġafraid":2174,"Ġuniversity":2175,"Ġsummer":2176,"play":2177,"ract":2178,"ession":2179,"Ġeuro":2180,"alth":2181,"Ġdream":2182,"net":2183,"Ġproblem":2184,"Ġjanuary":2185,"Ġfur":2186,"Ġexper":2187,"hello":2188,"ounds":2189,"Ġanyway":2190,"Ġanswered":2191,"Ġinde":2192,"Ġdie":2193,"con":2194,"ices":2195,"Ġcatch":2196,"Ġmaster":2197,"Ġ194":2198,"ara":2199,"ium":2200,"Ġregion":2201,"Ġreco":2202,"Ġsnow":2203,"Ġblock":2204,"Ġjune":2205,"Ġgar":2206,"Ġbes":2207,"Ġeasy":2208,"Ġgent":2209,"Ġforget":2210,"Ġrain":2211,"Ġchurch":2212,"Ġhours":2213,"Ġseems":2214,"Ġwhether":2215,"Ġpolice":2216,"point":2217,"mommy":2218,"ically":2219,"Ġoct":2220,"Ġval":2221,"Ġfield":2222,"aint":2223,"Ġdeep":2224,"Ġnamed":2225,"Ġsuppose":2226,"Ġpoints":2227,"Ġdaughter":2228,"Ġkids":2229,"Ġpet":2230,"Ġexact":2231,"wa":2232,"ler":2233,"Ġsounds":2234,"Ġwithin":2235,"Ġjoe":2236,"port":2237,"ural":2238,"makes":2239,"Ġya":2240,"Ġhus":2241,"la":2242,"Ġclothes":2243,"Ġfit":2244,"Ġfort":2245,"Ġwhatever":2246,"ude":2247,"your":2248,"Ġthemselves":2249,"cr":2250,"Ġslow":2251,"Ġmarried":2252,"Ġtur":2253,"Ġpleas":2254,"gue":2255,"ility":2256,"Ġdepartment":2257,"Ġtired":2258,"Ġhill":2259,"Ġhang":2260,"Ġcast":2261,"uk":2262,"Ġlord":2263,"vision":2264,"Ġpress":2265,"Ġdav":2266,"Ġstraight":2267,"Ġcommun":2268,"Ġalbum":2269,"Ġduck":2270,"oose":2271,"Ġreleased":2272,"gas":2273,"Ġ12":2274,"mother":2275,"Ġcontro":2276,"Ġcomple":2277,"Ġabs":2278,"Ġdece":2279,"velop":2280,"Ġyours":2281,"Ġspec":2282,"Ġemp":2283,"Ġelect":2284,"Ġrad":2285,"Ġshar":2286,"Ġvar":2287,"Ġeye":2288,"ality":2289,"though":2290,"Ġpa":2291,"Ġlives":2292,"Ġboard":2293,"Ġluck":2294,"Ġsail":2295,"Ġcommand":2296,"Ġsecret":2297,"ead":2298,"Ġaug":2299,"bles":2300,"Ġdistrict":2301,"owers":2302,"Ġnews":2303,"Ġknows":2304,"Ġeating":2305,"Ġaunt":2306,"Ġ...":2307,"Ġcharac":2308,"Ġsol":2309,"Ġappear":2310,"Ġeast":2311,"Ġengine":2312,"Ġcommon":2313,"Ġmajor":2314,"Ġain":2315,"Ġang":2316,"fer":2317,"rd":2318,"Ġoffice":2319,"Ġmist":2320,"Ã¡":2321,"Ġproper":2322,"Ġimm":2323,"Ġhol":2324,"ober":2325,"Ġbritish":2326,"Ġgentle":2327,"ond":2328,"Ġchamp":2329,"Ġmember":2330,"Ġlau":2331,"Ġpassed":2332,"Ġmonths":2333,"fr":2334,"iff":2335,"Ġoper":2336,"Ġvi":2337,"phone":2338,"Ġshot":2339,"Ġstation":2340,"Ġsucc":2341,"Ġwild":2342,"Ġcareer":2343,"Ġ16":2344,"Ġru":2345,"friend":2346,"Ġwaiting":2347,"Ġlots":2348,"Ġpossible":2349,"say":2350,"Ġaugust":2351,"Ġmoved":2352,"Ġexcl":2353,"Ġinstead":2354,"Ġworked":2355,"Ġlovely":2356,"Ġmart":2357,"que":2358,"yed":2359,"Ġsingle":2360,"daddy":2361,"gram":2362,"aged":2363,"fast":2364,"Ġbreat":2365,"Ġforward":2366,"ato":2367,"Ġdanger":2368,"Ġvict":2369,"ager":2370,"Ġdisco":2371,"Ġut":2372,"Ġabove":2373,"Ġseat":2374,"Ġnoises":2375,"Ġvisit":2376,"zy":2377,"Ġchristmas":2378,"Ġhop":2379,"Ġcannot":2380,"Ġhall":2381,"Ġsafe":2382,"Ġindeed":2383,"itch":2384,"Ġshoes":2385,"Ġputs":2386,"stairs":2387,"Ġthird":2388,"Ġhuman":2389,"some":2390,"Ġmiddle":2391,"vember":2392,"Ġsmo":2393,"Ġhusband":2394,"Ġfat":2395,"ek":2396,"Ġbell":2397,"Ġarms":2398,"Ġdevelop":2399,"Ġhors":2400,"ulation":2401,"Ġdest":2402,"which":2403,"Ġtreat":2404,"Ġtoward":2405,"Ġtowards":2406,"Ġadm":2407,"bt":2408,"Ġputting":2409,"ipp":2410,"Ġdiffic":2411,"Ġgarden":2412,"ptember":2413,"aimed":2414,"hant":2415,"Ġequ":2416,"Ġdev":2417,"Ġappro":2418,"Ġhen":2419,"Ġtelevision":2420,"uit":2421,"Ġ]":2422,"Ġknock":2423,"Ġmis":2424,"erv":2425,"Ġeurope":2426,"Ġtonight":2427,"Ġef":2428,"Ġchildes":2429,"Ġpal":2430,"childes":2431,"ooh":2432,"Ġbuilding":2433,"hern":2434,"Ġcouple":2435,"Ġforgot":2436,"Ġchick":2437,"Ġalthough":2438,"Ġreached":2439,"Ġ193":2440,"Ġcre":2441,"Ġdisc":2442,"Ġsight":2443,"wh":2444,"Ġhell":2445,"Ġquickly":2446,"Ġapril":2447,"Ġdat":2448,"aser":2449,"Ġprin":2450,"Ġterri":2451,"Ġoctober":2452,"Ġdrive":2453,"Ġpublic":2454,"uri":2455,"ene":2456,"Ġorigin":2457,"Ġengland":2458,"Ġclos":2459,"Ġbroken":2460,"maybe":2461,"Ġfavor":2462,"Ġdut":2463,"Ġenjo":2464,"Ġshout":2465,"Ġmor":2466,"Ġcop":2467,"Ġmary":2468,"bruary":2469,"Ġorgan":2470,"Ġarri":2471,"Ġlonger":2472,"Ġcaught":2473,"tr":2474,"Ġexactly":2475,"Ġtest":2476,"Ġjud":2477,"Ġsick":2478,"Ġlou":2479,"Ġevening":2480,"ott":2481,"Ġcool":2482,"Ġesc":2483,"Ġgri":2484,"gen":2485,"Ġpeter":2486,"Ġcover":2487,"Ġnovember":2488,"Ġformer":2489,"Ġphil":2490,"Ġjuly":2491,"Ġjuice":2492,"Ġbright":2493,"Ġglass":2494,"Ġseem":2495,"ardon":2496,"Ġvie":2497,"Ġcost":2498,"Ġlab":2499,"Ġfeeling":2500,"Ġreturned":2501,"cket":2502,"Ġfill":2503,"Ġeffect":2504,"gar":2505,"Ġhosp":2506,"Ġseptember":2507,"Ġahead":2508,"Ġeveryone":2509,"Ġneeds":2510,"ral":2511,"Ġparent":2512,"Ġnearly":2513,"Ġrose":2514,"Ġworry":2515,"Ġfear":2516,"Ġstanding":2517,"Ġplaces":2518,"Ġtape":2519,"ining":2520,"Ġcray":2521,"Ġdecember":2522,"ndon":2523,"Ġstrange":2524,"atic":2525,"Ġworks":2526,"with":2527,"Ġintern":2528,"Ġhy":2529,"Ġsave":2530,"Ġvillage":2531,"ior":2532,"rt":2533,"Ġservice":2534,"Ġplayer":2535,"Ġarmy":2536,"sk":2537,"Ġmiles":2538,"ugg":2539,"Ġchief":2540,"Ġtrack":2541,"ert":2542,"itchen":2543,"Ġant":2544,"Ġcareful":2545,"Ġtrees":2546,"Ġled":2547,"Ġsuccess":2548,"Ġmillion":2549,"Ġburn":2550,"vocal":2551,"Ġdirect":2552,"Ġhungry":2553,"iny":2554,"Ġwel":2555,"Ġteacher":2556,"ask":2557,"nday":2558,"Ġchapter":2559,"âĢĵ":2560,"terday":2561,"Ġview":2562,"Ġshoot":2563,"Ġseason":2564,"Ġanyone":2565,"Ġwarm":2566,"Ġtelling":2567,"Ġgames":2568,"Ġbye":2569,"Ġkitchen":2570,"Ġ11":2571,"Ġver":2572,"ston":2573,"Ġsupport":2574,"Ġfebruary":2575,"uced":2576,"mbers":2577,"Ġprev":2578,"Ġprison":2579,"Ġsugg":2580,"gest":2581,"Ġbud":2582,"ned":2583,"Ġsuggest":2584,"Ġexcept":2585,"ba":2586,"ended":2587,"Ġchanged":2588,"Ġfollowing":2589,"used":2590,"Ġmeant":2591,"Ġbreakfast":2592,"ging":2593,"Ġstopped":2594,"Ġperfect":2595,"Ġital":2596,"Ġopened":2597,"Ġbuilt":2598,"ya":2599,"Ġted":2600,"Ġblow":2601,"Ġbroke":2602,"Ġpupp":2603,"Ġmass":2604,"emy":2605,"Ġwhis":2606,"Ġhoney":2607,"noon":2608,"lie":2609,"ĠĠĠĠĠĠĠĠĠĠĠĠĠĠĠĠ":2610,"Ġwhom":2611,"Ġbeat":2612,"--------":2613,"Ġride":2614,"Ġcertainly":2615,"od":2616,"Ġsupposed":2617,"Ġfle":2618,"would":2619,"Ġpack":2620,"Ġheavy":2621,"Ġdisapp":2622,"looks":2623,"Ġconcer":2624,"Ġlat":2625,"ien":2626,"Ġturns":2627,"Ġresp":2628,"bur":2629,"Ġvol":2630,"lt":2631,"ich":2632,"iam":2633,"Ġrab":2634,"Ġfarm":2635,"Ġsuddenly":2636,"Ġlondon":2637,"ino":2638,"Ġprop":2639,"Ġfollowed":2640,"rod":2641,"Ġprotect":2642,"'.":2643,"bor":2644,"Ġwritten":2645,"Ġbase":2646,"Ġdavid":2647,"was":2648,"Ġusing":2649,"Ġsilly":2650,"Ġswim":2651,"Ġbull":2652,"Ġbutter":2653,"ror":2654,"Ġcand":2655,"Ġquar":2656,"ement":2657,"Ġdecided":2658,"ament":2659,"Ġfa":2660,"Ġcake":2661,"Ġbottom":2662,"Ġspace":2663,"Ġdecl":2664,"ustral":2665,"time":2666,"give":2667,"Ġgas":2668,"of":2669,"Ġyesterday":2670,"Ġcard":2671,"Ġpieces":2672,"Ġprogram":2673,"Ġtrust":2674,"Ġpictures":2675,"Ġtot":2676,"Ġvan":2677,"singing":2678,"af":2679,"Ġwhose":2680,"Ġ14":2681,"Ġsmil":2682,"Ġafternoon":2683,"Ġcirc":2684,"dom":2685,"cially":2686,"rise":2687,"Ġindian":2688,"night":2689,"Ġcab":2690,"lin":2691,"ceed":2692,"Ġ13":2693,"Ġbread":2694,"Ġinform":2695,"uel":2696,"Ġrequ":2697,"Ġadded":2698,"hael":2699,"box":2700,"Ġweeks":2701,"Ġtick":2702,"Ġauth":2703,"Ġaustral":2704,"Ġstu":2705,"Ġcomplete":2706,"bing":2707,"uce":2708,"Ġposition":2709,"Ġlegs":2710,"Ġparticular":2711,"Ġlanguage":2712,"Ġorange":2713,"Ġtruth":2714,"Ġhospital":2715,"Ġmembers":2716,"ob":2717,"Ġtv":2718,"pes":2719,"Ġspir":2720,"cat":2721,"Ġnet":2722,"Ġcolle":2723,"will":2724,"Ġbon":2725,"Ġgeorge":2726,"wow":2727,"Ġsad":2728,"Ġmun":2729,"idence":2730,".'":2731,"ushed":2732,"Ġshop":2733,"Ġpretend":2734,"Ġcompet":2735,"Ġmal":2736,"Ġrub":2737,"Ġnobody":2738,"Ġruss":2739,"Ġdir":2740,"Ġbought":2741,"Ġhappens":2742,"Ġpract":2743,"Ġhole":2744,"aur":2745,"Ġdoubt":2746,"ffee":2747,"Ġgiving":2748,"Ġange":2749,"Ġwatching":2750,"Ġworth":2751,"empt":2752,"Ġtail":2753,"Ġbank":2754,"icip":2755,"Ġthirty":2756,"va":2757,"Ġspot":2758,"Ġsell":2759,"ula":2760,"ground":2761,"Ġexcuse":2762,"Ġholding":2763,"Ġcourt":2764,"die":2765,"Ġwal":2766,"Ġagre":2767,"Ġhig":2768,"Ġexclaimed":2769,"oon":2770,"Ġmach":2771,"Ġpaul":2772,"Ġhasn":2773,"Ġdem":2774,"Ġanybody":2775,"Ġdescri":2776,"board":2777,"Ġmoon":2778,"Ġbelong":2779,"Ġwrote":2780,"Ġden":2781,"work":2782,"Ġexample":2783,"Ġban":2784,"Ġfigure":2785,"amb":2786,"Ġlaughs":2787,"Ġfifty":2788,"Ġrepres":2789,"tell":2790,"Ġcamer":2791,"Ġbunny":2792,"ÃŃ":2793,"Ġcause":2794,"ĠâĢĺ":2795,"Ġsomewhere":2796,"Ġjer":2797,"tered":2798,"Ġauthor":2799,"ature":2800,"Ġur":2801,"Ġfri":2802,"Ġshit":2803,"yn":2804,"Ġleaving":2805,"Ġale":2806,"Ġstuck":2807,"Ġlunch":2808,"Ġfinish":2809,"Ġneck":2810,"Ġlevel":2811,"Ġneigh":2812,"Ġimag":2813,"ele":2814,"Ġcharacter":2815,"Ġhealth":2816,"Ġbang":2817,"Ġloc":2818,"Ġmoving":2819,"house":2820,"Ġcouncil":2821,"sit":2822,"Ġhu":2823,"Ġexpress":2824,"Ġfail":2825,"Ġlift":2826,"oint":2827,"ician":2828,"Ġow":2829,"Ġbusy":2830,"mit":2831,"Ġforce":2832,"ray":2833,"rit":2834,"Ġsex":2835,"Ġtast":2836,"Ġcompan":2837,"itted":2838,"Ġanimal":2839,"Ġparents":2840,"gasps":2841,"Ġet":2842,"Ġapart":2843,"Ġfurther":2844,"Ġdan":2845,"turn":2846,"gie":2847,"Ġstone":2848,"Ġincluding":2849,"Ġaccord":2850,"ishing":2851,"ustration":2852,"Ġpopulation":2853,"ada":2854,"Ġdry":2855,"gu":2856,"Ġcollege":2857,"whis":2858,"Ġmod":2859,"Ġsar":2860,"omin":2861,"ped":2862,"Ġsuff":2863,"Ġcarried":2864,"Ġfucking":2865,"reen":2866,"Ġcurrent":2867,"Ġjour":2868,"Ġtall":2869,"Ġreceived":2870,"Ġdifficult":2871,"Ġought":2872,"light":2873,"Ġfinally":2874,"Ġdefe":2875,"Ġcaus":2876,"bers":2877,"Ġsky":2878,"Ġlake":2879,"miss":2880,"iers":2881,"Ġnone":2882,"Ġcoffee":2883,"Ġqueen":2884,"Ġleague":2885,"11":2886,"Ġcas":2887,"Ġdig":2888,"ico":2889,"Ġrace":2890,"ĠĠĠĠĠĠ":2891,"Ġsense":2892,"ancy":2893,"icks":2894,"Ġsilver":2895,"Ġobs":2896,"Ġ30":2897,"yal":2898,"mie":2899,"Ġord":2900,"Ġflowers":2901,"Ġdesign":2902,"Ġvide":2903,"sings":2904,"Ġseeing":2905,"rel":2906,"Ġvir":2907,"Ġthou":2908,"ified":2909,"Ġinternational":2910,"Ġanymore":2911,"cher":2912,"Ġplays":2913,"Ġself":2914,"Ġaut":2915,"Ġelep":2916,",--":2917,"Ġcommune":2918,"ket":2919,"Ġteeth":2920,"Ġspoke":2921,"Ġcollect":2922,"Ġweren":2923,"Ġspan":2924,"Ġconvers":2925,"take":2926,"please":2927,"Ġcentury":2928,"Ġreach":2929,"Ġrul":2930,"baby":2931,"ored":2932,"Ġpriv":2933,"tho":2934,"Ġloud":2935,"Ġappeared":2936,"Ġmix":2937,"chan":2938,"Ġofficer":2939,"Ġbilly":2940,"Ġchampions":2941,"itty":2942,"ning":2943,"Ġrap":2944,"mum":2945,"Ġbeginning":2946,"ggy":2947,"Ġamerica":2948,"Ġcars":2949,"Ġevent":2950,"pecially":2951,"Ġcrow":2952,"Ġfinger":2953,"Ġep":2954,"ented":2955,"ĠâĨ":2956,"Ġhurry":2957,"ille":2958,"Ġscr":2959,"Ġbom":2960,"enny":2961,"want":2962,"Ġcomfort":2963,"Ġsen":2964,"Ġwet":2965,"Ġmc":2966,"points":2967,"Ġstore":2968,"iger":2969,"Ġfilm":2970,"Ġeff":2971,"Ġtit":2972,"Ġpush":2973,"Ġcontain":2974,"Ġpopular":2975,"Ġwalking":2976,"Ġpink":2977,"Ġnorm":2978,"Ġhorses":2979,"Ġcontinued":2980,"ghed":2981,"Ġlocal":2982,"Ġrev":2983,"Ġcrying":2984,"Ġcorner":2985,"har":2986,"Ġminister":2987,"Ġbridge":2988,"Ġfeed":2989,"Ġwashing":2990,"ech":2991,"Ġeduc":2992,"Ġharry":2993,"off":2994,"rupt":2995,"view":2996,"Ġaccept":2997,"Ġallowed":2998,"Ġattention":2999,"Ġwilliam":3000,"Ġwalked":3001,"ura":3002,"Ġgrass":3003,"Ġba":3004,"Ġpuzz":3005,"Ġbottle":3006,"Ġchicken":3007,"Ġrail":3008,"Ġtype":3009,"Ġbal":3010,"Ġstat":3011,"wor":3012,"ingly":3013,"Ġcheese":3014,"has":3015,"illustration":3016,"Ġhelen":3017,"Ġsport":3018,"ï¿½ï¿½ï¿½ï¿½":3019,"Ġlikes":3020,"cut":3021,"rer":3022,"Ġfres":3023,"Ġrecogn":3024,"Ġwide":3025,"estern":3026,"Ġcong":3027,"clock":3028,"Ġstudy":3029,"ison":3030,"anny":3031,"za":3032,"Ġpounds":3033,"acing":3034,"Ġrid":3035,"Ġcontrol":3036,"Ġconne":3037,"Ġbattle":3038,"oul":3039,"Ġdor":3040,"over":3041,"Ġvers":3042,"Ġsilence":3043,"Ġjames":3044,"Ġhun":3045,"Ġplate":3046,"da":3047,"Ġlock":3048,"Ġcell":3049,"Ġwash":3050,"aves":3051,"bb":3052,"Ġcy":3053,"Ġdance":3054,"Ġtear":3055,"Ġtrad":3056,"Ġfut":3057,"Ġ25":3058,"Ġwinter":3059,"Ġinformation":3060,"Ġdistance":3061,"Ġaward":3062,"under":3063,"Ġdropped":3064,"Ġlose":3065,"noise":3066,"Ġbased":3067,"Ġhan":3068,"Ġspend":3069,"Ġtwel":3070,"yep":3071,"Ġsmell":3072,"wood":3073,"Ġate":3074,"Ġcapital":3075,"Ġmeeting":3076,"vi":3077,"Ġsna":3078,"Ġscar":3079,"Ġnar":3080,"ization":3081,"fo":3082,"lished":3083,"wait":3084,"plo":3085,"Ġ2018":3086,"Ġmem":3087,"ounced":3088,"Ġletters":3089,"Ġaccount":3090,"izes":3091,"Ġwelcome":3092,"Ġhast":3093,"Ġpicks":3094,"hoh":3095,"Ġwed":3096,"ume":3097,"olute":3098,"uation":3099,"acy":3100,"Ġstars":3101,"Ġholds":3102,"Ġdanc":3103,"Ġsout":3104,"ses":3105,"Ġshouldn":3106,"Ġshape":3107,"Ġlaughed":3108,"Ġcreated":3109,"Ġwonderful":3110,"iced":3111,"Ġcream":3112,"ously":3113,"ĠâĮ":3114,"Ġsharp":3115,"Ġbroad":3116,"Ġdelight":3117,"Ġperio":3118,"nes":3119,"Ġtor":3120,"Ġ192":3121,"Ġcompl":3122,"Ġconsider":3123,"Ġlos":3124,"Ġinvest":3125,"Ġapple":3126,"Ġspeed":3127,"Ġdrop":3128,"Ġpolic":3129,"ashi":3130,"Ġitself":3131,"Ġmichael":3132,"Ġentire":3133,"Ġforest":3134,"ids":3135,"Ġ$":3136,"riage":3137,"olved":3138,"name":3139,"pper":3140,"Ġspring":3141,"igg":3142,"Ġrespect":3143,"Ġpil":3144,"Ġmatch":3145,"por":3146,"Ġroman":3147,"vin":3148,"10":3149,"Ġmunicip":3150,"Ġcrazy":3151,"Ġparts":3152,"Ġnecess":3153,"Ġears":3154,"Ġï¿½":3155,"Ġmir":3156,"isc":3157,"Ġguard":3158,"rem":3159,"Ġlaughing":3160,"Ġleaves":3161,"edi":3162,"Ġphy":3163,"ipe":3164,"Ġinteresting":3165,"Ġpan":3166,"Ġhous":3167,"pered":3168,"Ġwriting":3169,"Ġkey":3170,"Ġwheel":3171,"Ġespecially":3172,"Ġmam":3173,"Ġ2021":3174,"Ġnames":3175,"itions":3176,"ky":3177,"Ġbirds":3178,"Ġfavorite":3179,"ault":3180,"Ġluc":3181,"Ġpeace":3182,"Ġgrew":3183,"Ġcomput":3184,"Ġca":3185,"Ġliked":3186,"âĮĭ":3187,"Ġdu":3188,"Ġfamous":3189,"Ġcapt":3190,"Ġgermany":3191,"Ġpray":3192,"Ġreading":3193,"âĮī":3194,"Ġmountain":3195,"Ġsle":3196,"str":3197,"Ġkick":3198,"Ġphot":3199,"round":3200,"Ġsan":3201,"Ġplant":3202,"shi":3203,"Ġir":3204,"set":3205,"Ġdick":3206,"Ġhate":3207,"Ġham":3208,"Ġciv":3209,"Ġtech":3210,"gl":3211,"Ġfaith":3212,"ires":3213,"Ġjul":3214,"._":3215,"Ġincre":3216,"wanna":3217,"Ġdue":3218,"antly":3219,"Ġmention":3220,"Ġfuture":3221,"Ġbasket":3222,"Ġstarts":3223,"Ġdin":3224,"Ġslowly":3225,"Ġvideo":3226,"Ġfool":3227,"Ġhide":3228,"Ġspl":3229,"Ġcharge":3230,"Ġcarl":3231,"Ġmel":3232,"Ġalive":3233,"Ġprofession":3234,"Ġquestions":3235,"pardon":3236,"Ġactiv":3237,"dered":3238,"yle":3239,"Ġmama":3240,"Ġanx":3241,"Ġthee":3242,"bre":3243,"Ġjes":3244,"Ġlying":3245,"Ġeggs":3246,"Ġfem":3247,"astic":3248,"Ġshowed":3249,"Ġcro":3250,"Ġeh":3251,"cell":3252,"Ġbelow":3253,"Ġsheep":3254,"Ġattempt":3255,"chard":3256,"Ġgives":3257,"Ġfraser":3258,"ades":3259,"Ġcrayon":3260,"uts":3261,"Ġinterested":3262,"Ġpaid":3263,"Ġtwelve":3264,"Ġrich":3265,"Ġserious":3266,"field":3267,"aper":3268,"Ġsev":3269,"ird":3270,"ppy":3271,"soci":3272,"Ġell":3273,"den":3274,"Ġwol":3275,"Ġbobby":3276,"Ġsurprise":3277,"Ġbetty":3278,"Ġbuck":3279,"Ġfol":3280,"Ġiss":3281,"Ġsurpris":3282,"isted":3283,"uhoh":3284,"Ġthus":3285,"Ġsmile":3286,"Ġneeded":3287,"Ġze":3288,"Ġdestro":3289,"Ġprep":3290,"Ġhost":3291,",'":3292,"iforn":3293,"down":3294,"Ġsocial":3295,"aps":3296,"tt":3297,"Ġremark":3298,"Ġta":3299,"Ġleng":3300,"Ġaff":3301,"Ġrese":3302,"Ġsinging":3303,"Ġgrandma":3304,"ublic":3305,"Ġscared":3306,"Ġsquare":3307,"Ġcamera":3308,"Ġmhm":3309,"ashed":3310,"colate":3311,"Ġclosed":3312,"Ġrabbit":3313,"Ġperiod":3314,"Ġkingdom":3315,"ka":3316,"Ġrepe":3317,"Ġsubject":3318,"Ġterrible":3319,"Ġloved":3320,"Ġcaliforn":3321,"Ġfer":3322,"Ġbigger":3323,"three":3324,"ustom":3325,"Ġfingers":3326,"Ġmonkey":3327,"Ġjoy":3328,"Ġfed":3329,"Ġsoci":3330,"ressed":3331,"Ġconversation":3332,"Ġmoder":3333,"itary":3334,"Ġunion":3335,"Ġ24":3336,"18":3337,"Ġmac":3338,"Ġinfl":3339,"ilar":3340,"roll":3341,"pers":3342,"Ġproblems":3343,"ida":3344,"ift":3345,"big":3346,"asion":3347,"Ġabsolute":3348,"Ġspecies":3349,"hood":3350,"sa":3351,"Ġox":3352,"Ġlu":3353,"Ġcrack":3354,"tur":3355,"Ġtow":3356,"Ġpun":3357,"Ġassoci":3358,"Ġdogs":3359,"Ġrobert":3360,"ĠâĨĴ":3361,"Ġradio":3362,"asure":3363,"Ġcivil":3364,"Ġnort":3365,"Ġcalifornia":3366,"Ġmachine":3367,"Ġii":3368,"Ġcountries":3369,"_,":3370,"Ġextra":3371,"Ġshare":3372,"Ġprovince":3373,"Ġstories":3374,"eral":3375,"fad":3376,"isf":3377,"Ġaud":3378,"back":3379,"Ġ2019":3380,"Ġcoast":3381,"Ġturning":3382,"nic":3383,"\")":3384,"Ġgro":3385,"Ġsepar":3386,"Ġbreath":3387,"Ġhardly":3388,"Ġshows":3389,"Ġpromise":3390,"Ġrepublic":3391,"lymp":3392,"Ġdirection":3393,"Ġimmedi":3394,"Ġlion":3395,"itive":3396,"Ġsimilar":3397,"Ġphys":3398,"omes":3399,"Ġelephant":3400,"watch":3401,"Ġfred":3402,"ca":3403,"Ġunless":3404,"wise":3405,"Ġforty":3406,"nded":3407,"Ġpocket":3408,"Ġstup":3409,"Ġalex":3410,"12":3411,"father":3412,"lyn":3413,"Ġsleeping":3414,"anor":3415,"Ġgall":3416,"Ġasking":3417,"Ġchoo":3418,"Ġasleep":3419,"Ġarr":3420,"Ġteddy":3421,"Ġhm":3422,"Ġcenter":3423,"ads":3424,"Ġye":3425,"Ġolymp":3426,"pa":3427,"bri":3428,"Ġwow":3429,"Ġleader":3430,"Ġstage":3431,"Ġooh":3432,"Ġbey":3433,"Ġremain":3434,"Ġfamil":3435,"these":3436,"zer":3437,"Ġcomb":3438,"Ġfresh":3439,"ius":3440,"Ġ(\"":3441,"Ġmicro":3442,"Ġcentral":3443,"Ġaccording":3444,"laughing":3445,"Ġnatural":3446,"Ġtherefore":3447,"ument":3448,"ergy":3449,"Ġindia":3450,"Ġcult":3451,"Ġiron":3452,"cul":3453,"Ġforth":3454,"ably":3455,"Ġviol":3456,"Ġcircle":3457,"nds":3458,"Ġdirty":3459,"Ġpicked":3460,"ination":3461,"Ġthy":3462,"aching":3463,"Ġfright":3464,"Ġhelped":3465,"old":3466,"ustri":3467,"Ġserved":3468,"Ġaccom":3469,"Ġpaint":3470,"Ġav":3471,"Ġcovered":3472,"Ġkitty":3473,"Ġmouse":3474,"Ġeaster":3475,"Ġaction":3476,"cious":3477,"Ġprocess":3478,"olution":3479,"Ġspread":3480,"Ġmedic":3481,"Ġprince":3482,"Ġpurp":3483,"Ġrelig":3484,"Ġslight":3485,"ays":3486,"Ġsearch":3487,"Ġnest":3488,"iment":3489,"Ġcoat":3490,"Ġ2017":3491,"Ġolder":3492,"bour":3493,"outs":3494,"Ġways":3495,"conom":3496,"Ġwestern":3497,"Ġmeat":3498,"Ġdun":3499,"Ġspent":3500,"Ġlikely":3501,"Ġspirit":3502,"ency":3503,"Ġperform":3504,"Ġjoined":3505,"Ġfinal":3506,"Ġstupid":3507,"yer":3508,"Ġjew":3509,"ny":3510,"Ġpolitician":3511,"Ġinclude":3512,"ils":3513,"Ġamaz":3514,"line":3515,"Ġlearned":3516,"Ġspoon":3517,"Ġcous":3518,"uction":3519,"Ġtalked":3520,"Ġtal":3521,"rect":3522,"Ġ23":3523,"Ġamount":3524,"Ġcart":3525,"Ġsant":3526,"Ġflat":3527,"Ġadvent":3528,"pret":3529,"inite":3530,"Ġ&":3531,"Ġsunday":3532,"aven":3533,"Ġobv":3534,"Ġterm":3535,"gs":3536,"Ġcaused":3537,"anda":3538,"Ġrow":3539,"mat":3540,"Ġspr":3541,"Ġbeyond":3542,"Ġtend":3543,"sm":3544,"Ġblank":3545,"Ġentered":3546,"Ġdrawing":3547,"ov":3548,"Ġtower":3549,"Ġpossib":3550,"Ġworse":3551,"uten":3552,"Ġsmart":3553,"Ġlower":3554,"ville":3555,"Ġjapanese":3556,"Ġeconom":3557,"sure":3558,"Ġsituation":3559,"ushing":3560,"aker":3561,"Ġhero":3562,"zen":3563,"inary":3564,"Ġ21":3565,"vies":3566,"Ġ2022":3567,"Ġrepresent":3568,"Ġcens":3569,"ption":3570,"eh":3571,"Ġsue":3572,"Ġenjoy":3573,"erve":3574,"Ġtiny":3575,"Ġtour":3576,"Ġsize":3577,"Ġcalling":3578,"Ġaccident":3579,"Ġsatisf":3580,"Ġbay":3581,"Ġbeach":3582,"stop":3583,"oe":3584,"order":3585,"Ġspeaking":3586,"Ġque":3587,"Ġbound":3588,"Ġearli":3589,"Ġfighting":3590,"Ġdeclared":3591,"aff":3592,"Ġdrew":3593,"coun":3594,"Ġcrit":3595,"Ġscient":3596,"ĠÂ":3597,"Ġenemy":3598,"those":3599,"four":3600,"Ġproject":3601,"Ġnature":3602,"Ġ22":3603,"yy":3604,"Ġgate":3605,"Ġlines":3606,"Ġvarious":3607,"gon":3608,"isy":3609,"Ġbite":3610,"Ġshore":3611,"Ġprofess":3612,"aughty":3613,"'?":3614,"Ġstren":3615,"Ġjoin":3616,"reek":3617,"mic":3618,"Ġlength":3619,"Ġmax":3620,"Ġtrip":3621,"Ġspanish":3622,"Ġlee":3623,"Ġfox":3624,"Ġjane":3625,"Ġchocolate":3626,"Ġmovies":3627,"ighs":3628,"Ġhenry":3629,"Ã¶":3630,"Ġagreed":3631,"Ġwake":3632,"]!":3633,"gged":3634,"Ġdriving":3635,"Ġble":3636,"Ġdirector":3637,"sen":3638,"Ġflying":3639,"Ġnic":3640,"Ġdollars":3641,"ference":3642,"boy":3643,"Ġexplain":3644,"aded":3645,"Ġmarket":3646,"Ġwit":3647,"Ġtax":3648,"Ġ2010":3649,"Ġyo":3650,"Ġpersonal":3651,"Ġrough":3652,"orm":3653,"Ġutter":3654,"nel":3655,"Ġhonest":3656,"Ġangry":3657,"Ġupstairs":3658,"Ġnurs":3659,"Ġrole":3660,"Ġdirected":3661,"Ġlaid":3662,"Ġdeli":3663,"inct":3664,"essie":3665,"Ġroyal":3666,"Ġmissing":3667,"sil":3668,"Ġoppos":3669,"ites":3670,"erved":3671,"rican":3672,"Ġscream":3673,"Ġbackground":3674,"Ġnote":3675,"Ġbeside":3676,"urday":3677,"ode":3678,"Ġweather":3679,"epend":3680,"Ġmodern":3681,"Ġstan":3682,"Ġsimple":3683,"aches":3684,"Ġwoods":3685,"raphy":3686,"Ġstarting":3687,"Ġtight":3688,"Ġlargest":3689,"iar":3690,"Ġdiscuss":3691,"kin":3692,"Ġintrod":3693,"Ġstraw":3694,"Ġaustralia":3695,"bar":3696,"des":3697,"Ġdressed":3698,"Ġsoldiers":3699,"Ġwindows":3700,"reme":3701,"ply":3702,"Ġpill":3703,"Ġparis":3704,"Ġcensus":3705,"book":3706,"ship":3707,"Ġsteps":3708,"Ġnumbers":3709,"bu":3710,"counter":3711,"Ġdeter":3712,"Ġ100":3713,"Ġrelations":3714,"sidered":3715,"Ġsandw":3716,"Ġconsidered":3717,"aren":3718,"soa":3719,"ups":3720,"fri":3721,"face":3722,"14":3723,"15":3724,"Ġplann":3725,"kn":3726,"Ġstock":3727,"Ġresult":3728,"ica":3729,"Ġwand":3730,"Ġladies":3731,"Ġamy":3732,"Ġsens":3733,"action":3734,"alley":3735,"Ġrespons":3736,"five":3737,"Ġinf":3738,"Ġclock":3739,"Ġnorthern":3740,"Ġdriver":3741,"Ġcomputer":3742,"Ġthrew":3743,"rie":3744,"ising":3745,"Ġstreng":3746,"Ġsuit":3747,"Ġdamn":3748,"Ġide":3749,"Ġmanage":3750,"Ġnick":3751,"Ġund":3752,"Ġheaven":3753,"Ġder":3754,"Ġpath":3755,"Ġescape":3756,"Ġplaced":3757,"Ġshirt":3758,"Ġarrived":3759,"Ġsongs":3760,"Ġves":3761,"Ġhappening":3762,"Ġrefer":3763,"phi":3764,"Ġcheer":3765,"aud":3766,"Ġspell":3767,"Ġprofessional":3768,"Ġfalling":3769,"cour":3770,"Ġcolors":3771,"Ġmilitary":3772,"Ġjesus":3773,"Ġpolitical":3774,"eds":3775,"Ġchristian":3776,"ums":3777,"Ġblocks":3778,"Ġtemper":3779,"Ġcabin":3780,"ially":3781,"Ġmater":3782,"somet":3783,"ology":3784,"cient":3785,"Ġproud":3786,"Ġpleasure":3787,"Ġstorm":3788,"Ġeducation":3789,"su":3790,"Ġclever":3791,"cles":3792,"Ġdiscovered":3793,"Ġweap":3794,"cky":3795,"Ġsett":3796,"Ġregular":3797,"Ġcrowd":3798,"enth":3799,"dr":3800,"Ġcharles":3801,"Ġnon":3802,"Ġ26":3803,"Ġhotel":3804,"Ġabsolutely":3805,"Ġdemo":3806,"Ġraised":3807,"Ġprice":3808,"Ġwatched":3809,"cho":3810,"every":3811,"hered":3812,"30":3813,"Ġactor":3814,"Ġemplo":3815,"Ġpuzzle":3816,"Ġoriginal":3817,"Ġenergy":3818,"Ġwearing":3819,"wr":3820,"Ġdust":3821,"amy":3822,"Ġbabies":3823,"Ġeager":3824,"Ġeffort":3825,"Ġhonor":3826,"Ġhouses":3827,"Ġcrew":3828,"ables":3829,"Ġholid":3830,"Ġpuppet":3831,"Ġgovernor":3832,"Ġtony":3833,"Ġnap":3834,"oned":3835,"Ġlid":3836,"heart":3837,"Ġdifference":3838,"Ġhiding":3839,"Ġ2011":3840,"ago":3841,"Ġdeck":3842,"pr":3843,"Ġgoin":3844,"Ġtar":3845,"edy":3846,"Ġmotor":3847,"Ġbesides":3848,"Ġpulled":3849,"Ġthinks":3850,"Ġeasily":3851,"Ġplane":3852,"Ġneither":3853,"Ġonto":3854,"Ġlucky":3855,"chie":3856,"Ġanne":3857,"ached":3858,"itude":3859,"Ġquarter":3860,"Ġprivate":3861,"formed":3862,"Ġmunicipality":3863,"Ġdemand":3864,"Ġsac":3865,"Ġacad":3866,"vell":3867,"Ġthreat":3868,"keep":3869,"Ġindepend":3870,"ga":3871,"Ġyouth":3872,"Ġmissed":3873,"Ġoce":3874,"Ġrichard":3875,"antic":3876,"Ġdangerous":3877,"17":3878,"Ġnur":3879,"Ġregard":3880,"ories":3881,"Ġcuri":3882,"Ġgrab":3883,"Ġproduced":3884,"Ġhandle":3885,"Ġmex":3886,"Ġbor":3887,"ples":3888,"Ġadult":3889,"Ġcompletely":3890,"Ġanywhere":3891,"Ġtex":3892,"Ġinflu":3893,"sey":3894,"Ġmoves":3895,"Ġmi":3896,"Ġsarah":3897,"Ġformed":3898,"Ġmanner":3899,"Ġimmediately":3900,"Ġskin":3901,"Ġ27":3902,"illa":3903,"Ġoffe":3904,"Ġsurv":3905,"Ġdate":3906,"Ġtaste":3907,"Ġpit":3908,"ests":3909,"uckles":3910,"Ġchat":3911,"Ġtwice":3912,"Ġsaturday":3913,"nie":3914,"ival":3915,"Ġsurprised":3916,"Ġarg":3917,"Ġfilled":3918,"Ġwound":3919,"Ġstream":3920,"Ġsociety":3921,"mes":3922,"Ġbegin":3923,"Ġtravel":3924,"Ġsnake":3925,"itor":3926,"Ġboo":3927,"Ġscene":3928,"Ġedge":3929,"Ġmeaning":3930,"Ġ2016":3931,"asons":3932,"Ġthro":3933,"Ġadam":3934,"Ġprofessor":3935,"...?":3936,"Ġhuge":3937,"cast":3938,"Ġplain":3939,"Ġempty":3940,"Ġhadn":3941,"fill":3942,"vir":3943,"Ġcarol":3944,"Ġlouis":3945,"Ġhigher":3946,"ivid":3947,"brother":3948,"13":3949,"Ġthick":3950,"vocalizes":3951,"Ġpin":3952,"Ġaye":3953,"Ġtrail":3954,"Ġended":3955,"hah":3956,"Ġtiger":3957,"Ġflight":3958,"utenant":3959,"iant":3960,"Ġvessel":3961,"Ġneedta":3962,"Ġdrug":3963,"Ġmagic":3964,"Ġdinos":3965,"Ġcustom":3966,"Ġmonster":3967,"Ġoccasion":3968,"hin":3969,"Ġ..":3970,"Ġroof":3971,"nin":3972,"Ġsugar":3973,"oming":3974,"Ġsmoke":3975,"Ã¼":3976,"Ġfruit":3977,"elly":3978,"Ġwag":3979,"Ġscott":3980,"picks":3981,"Ġdeg":3982,"Ġ28":3983,"bet":3984,"Ġflag":3985,"iction":3986,"rat":3987,"Ġarrest":3988,"Ġmike":3989,"Ġsimply":3990,"Ġfeat":3991,"Ġannounced":3992,"sib":3993,"Ġconv":3994,"Ġnotice":3995,"Ġ29":3996,"Ġcentre":3997,"Ġnaughty":3998,"Ġlights":3999,"ails":4000,"Ġsinger":4001,"ki":4002,"rey":4003,"ela":4004,"Ġcalm":4005,"Ġduty":4006,"ensive":4007,"Ġsoul":4008,"Ġexperience":4009,"mr":4010,"Ġtone":4011,"Ġsettle":4012,"Ġpleased":4013,"puts":4014,"Ġdepend":4015,"hop":4016,"Ġsouthern":4017,"Ġtong":4018,"Ġheads":4019,"Ġcontinues":4020,"peter":4021,"Ġnea":4022,"Ġtotal":4023,"Ġrat":4024,"Ġopport":4025,"anced":4026,"Ġchina":4027,"Ġeuropean":4028,"Ġbless":4029,"Ġimagine":4030,"war":4031,"Ġbutton":4032,"Ġpurpose":4033,"Ġshoe":4034,"Ġdouble":4035,"ctions":4036,"Ġflower":4037,"Ġexpected":4038,"Ġpound":4039,"Ġfallen":4040,"Ġcookie":4041,"ita":4042,"Ġamb":4043,"Ġassist":4044,"thomas":4045,"Ġancient":4046,"Ġbelieved":4047,"Ġjourney":4048,"Ġepis":4049,"Ġinj":4050,"Ġdetect":4051,"ipped":4052,"Ġagree":4053,"Ġjwww":4054,"isn":4055,"Ġident":4056,"berry":4057,"Ġsupper":4058,"Ġarab":4059,"Ġbert":4060,"Ġexcited":4061,"Ġnecessary":4062,"Ġbrave":4063,"fly":4064,"Ġcraw":4065,"Ġguns":4066,"Ġbrief":4067,".,":4068,"Ġopportun":4069,"cus":4070,"Ġmostly":4071,"Ġofficers":4072,"Ġlieutenant":4073,"Ġdim":4074,"ouch":4075,"Ġplenty":4076,"Ġpor":4077,"Ġcastle":4078,"blue":4079,"Ġcommunity":4080,"ker":4081,"takes":4082,"gro":4083,"Ġopening":4084,"Ġmountains":4085,"try":4086,"Ġbowl":4087,"Ġawful":4088,"Ġinvestig":4089,"Ġgoodness":4090,"Ġpotato":4091,"rid":4092,"Ġ2014":4093,"little":4094,"verse":4095,"Ġsusp":4096,"Ġtears":4097,"Ġbloody":4098,"Ġfranc":4099,"ushes":4100,"Ġocean":4101,"Ġboss":4102,"Ġusual":4103,"lv":4104,"Ġmaggie":4105,"Ġcousin":4106,"make":4107,"Ġkne":4108,"nal":4109,"ening":4110,"tering":4111,"Ġcharlie":4112,"lor":4113,"another":4114,"Ġgrown":4115,"Ġprincess":4116,"Ġnurse":4117,"Ġruns":4118,"onel":4119,"Ġoffer":4120,"Ġsele":4121,"Ġelection":4122,"new":4123,"ledge":4124,"Ġbrush":4125,"Ġ2012":4126,"Ġdolly":4127,"Ġgaz":4128,"Ġ)":4129,"usion":4130,"Ġitalian":4131,"Ġearlier":4132,"Ġdemocr":4133,"vere":4134,"Ġwil":4135,"Ġchoice":4136,"oups":4137,"Ġbi":4138,"ators":4139,"Ġmut":4140,"iel":4141,"cries":4142,"Ġemer":4143,"ero":4144,"Ġeld":4145,"Ġray":4146,"Ġswimming":4147,"Ġimpro":4148,"Ġsaved":4149,"Ġprime":4150,"Ġ2013":4151,"abel":4152,"Ġmurder":4153,"Ġexe":4154,"Ġpleasant":4155,"ression":4156,"Ġapparent":4157,"arm":4158,"Ġbrothers":4159,"Ġpromised":4160,"ruction":4161,"Ġiv":4162,"ping":4163,"Ġpir":4164,"Ġattract":4165,"Ġtexas":4166,"bra":4167,"Ġrapid":4168,"Ġevidence":4169,"Ġbrain":4170,"bered":4171,"Ġpra":4172,"sw":4173,"Ġweight":4174,"Ġdefinite":4175,"Ġrule":4176,"Ġstret":4177,"hal":4178,"inese":4179,"could":4180,"Ġ--":4181,"Ġmovement":4182,"Ġearn":4183,"fall":4184,"Ġterms":4185,"Ġlistening":4186,"Ġjun":4187,"Ġexist":4188,"Ġstruck":4189,"Ġhorn":4190,"ggie":4191,"Ġstrength":4192,"pet":4193,"Ġpause":4194,"rising":4195,"Ġheat":4196,"Ġremo":4197,"cip":4198,"Ġelectric":4199,"ips":4200,"looking":4201,"Ġhug":4202,"Ġmult":4203,"Ġscot":4204,"Ġsteam":4205,"Ġ2015":4206,"Ġinterrupt":4207,"16":4208,"Ġcarefully":4209,"Ġbeha":4210,"Ġenter":4211,"Ġgrowing":4212,"Ġswing":4213,"Ġdoc":4214,"Ġseconds":4215,"Ġknife":4216,"Ġstrugg":4217,"Ġfault":4218,"mark":4219,"Ġnoticed":4220,"Ġkeeping":4221,"ena":4222,"Ġfourth":4223,"should":4224,"Ġoccup":4225,"Ġjudge":4226,"jen":4227,"burg":4228,"Ġgrace":4229,"iled":4230,"Ġdise":4231,"rya":4232,"Ġdesp":4233,"nding":4234,"Ġrussian":4235,"Ġjam":4236,"Ġsav":4237,"ko":4238,"Ġfifteen":4239,"Ġphili":4240,"ults":4241,"Ġmessage":4242,"Ġliter":4243,"Ġmartin":4244,"Ġ2008":4245,"Ġlap":4246,"eaks":4247,"Ġflor":4248,"Ġfalls":4249,"Ġgolden":4250,"Ġscience":4251,"cing":4252,"istr":4253,"mond":4254,"Ġfriday":4255,"Ġmedicine":4256,"Ġordered":4257,"whoops":4258,"ointed":4259,"andy":4260,"Ġlips":4261,"icated":4262,"Ġevident":4263,"iding":4264,"Ġpair":4265,"Ġrelie":4266,"Ġgray":4267,"Ġobviously":4268,"Ġestab":4269,"west":4270,"Ġhistor":4271,"Ġmistake":4272,"Ġweak":4273,"ander":4274,"Ġshoulder":4275,"rain":4276,"ban":4277,"rica":4278,"kins":4279,"Ġsaf":4280,"Ġwatches":4281,"Ġfemale":4282,"Ġbonnet":4283,"Ġgroups":4284,"50":4285,"ĠâĢĻ":4286,"Ġpic":4287,"going":4288,"Ġliber":4289,"Ġmyster":4290,"Ġfellows":4291,"ossible":4292,"pro":4293,"Ġjose":4294,"Ġglo":4295,"Ġoil":4296,"istan":4297,"bell":4298,"Ġmeal":4299,"Ġblind":4300,"Ġstairs":4301,"Ġinvolved":4302,"Ġproduct":4303,"Ġsour":4304,"Ġpublished":4305,"Ġrising":4306,"Ġlin":4307,"Ġindivid":4308,"ns":4309,"Ġgrave":4310,"Ġinqu":4311,"Ġrac":4312,"Ġoccur":4313,"Ġchoose":4314,"bel":4315,"200":4316,"Ġwalks":4317,"Ġned":4318,"Ġareas":4319,"Ġtrade":4320,"Ġgentleman":4321,"open":4322,"Ġrout":4323,"dis":4324,"Ġorders":4325,"Ġram":4326,"Ġplants":4327,"show":4328,"Ġcanada":4329,"char":4330,"Ġitaly":4331,"Ġshad":4332,"Ġninet":4333,"ja":4334,"Ġtaught":4335,"Ġcards":4336,"Ġmission":4337,"Ġ2009":4338,"Ġly":4339,"Ġmagaz":4340,"Ġkat":4341,"Ġpeas":4342,"Ġ2007":4343,"Ġbub":4344,"Ġchampionship":4345,"Ġmarry":4346,"Ġnewsp":4347,"Ġtells":4348,"istics":4349,"Ġprize":4350,"Ġcorrect":4351,"Ġsides":4352,"urity":4353,"Ġwashington":4354,"Ġtraining":4355,"Ġpurple":4356,"Ġtitle":4357,"hire":4358,"Ġros":4359,"aked":4360,"Ġcalls":4361,"Ġremem":4362,"Ġfounded":4363,"iles":4364,"Ġbegins":4365,"Ġdancing":4366,"Ġpour":4367,"izza":4368,"Ġ[?":4369,"Ġrange":4370,"Ġslide":4371,"Ġcommitt":4372,"Ġacqu":4373,"Ġthroat":4374,"Ġvac":4375,"Ġwrest":4376,"Ġrights":4377,"Ġuk":4378,"Ġbedroom":4379,"aled":4380,"Ġrocks":4381,"lla":4382,"Ġtries":4383,"ĠâĮĪ":4384,"ordon":4385,"bes":4386,"Ġteach":4387,"ively":4388,"Ġnormal":4389,"Ġemb":4390,"Ġsaint":4391,"Ġgal":4392,"lebr":4393,"Ġchinese":4394,"Ġshell":4395,"think":4396,"isters":4397,"Ġremind":4398,"âĮī.":4399,"rom":4400,"oured":4401,"Ġchem":4402,"berg":4403,"Ġactress":4404,"Ġcloser":4405,"Ġdelic":4406,"Ġeleven":4407,"Ġimpossible":4408,"Ġaddress":4409,"oughs":4410,"Ġresearch":4411,"Ġalice":4412,"Ġ50":4413,"mel":4414,"Ġspoken":4415,"sta":4416,"Ġtu":4417,"Ġscrew":4418,"Ġ2006":4419,"Ġtap":4420,"ishes":4421,"Ġmotion":4422,"Ã¨":4423,"logy":4424,"Ġtelephone":4425,"Ġfinding":4426,"Ġversion":4427,"âĮĬ":4428,"Ġgrant":4429,"Ġdivision":4430,"Ġchanges":4431,"Ġproduc":4432,"Ġnative":4433,"whe":4434,"Ġfashi":4435,"Ġmuse":4436,"Ġplat":4437,"Ġdevelopment":4438,"fa":4439,"Ġsmaller":4440,"zil":4441,"sighs":4442,"Ġeastern":4443,"Ġloss":4444,"Ġsmith":4445,"----------------":4446,"Ġclaim":4447,"Ġeverywhere":4448,"water":4449,"Ġiris":4450,"Ġdownstairs":4451,"Ġfirm":4452,"Ġharm":4453,"gress":4454,"oms":4455,"âĮĭ.":4456,"Ġninety":4457,"Ġcrown":4458,"Ġaged":4459,"jam":4460,"lle":4461,"saw":4462,"Ġhonour":4463,"Ġreaches":4464,"Ġgenerally":4465,"Ġfixed":4466,"Ġcred":4467,"Ġcolonel":4468,"Ġprepared":4469,"eman":4470,"Ġsurround":4471,"aning":4472,"Ġgreater":4473,"Ġcelebr":4474,"ndered":4475,"Ġclimb":4476,"Ġworried":4477,"bow":4478,"Ġprint":4479,"Ġpool":4480,"kat":4481,"ify":4482,"Ġshown":4483,"Ġbeauty":4484,"Ã³":4485,"Ġeve":4486,"Ġwolf":4487,"mus":4488,"Ġmanaged":4489,"Ġbum":4490,"hum":4491,"Ġshake":4492,"erson":4493,"Ġappre":4494,"Ġpresently":4495,"Ġrang":4496,"Ġsom":4497,"Ġlocated":4498,"Ġbother":4499,"Ġsau":4500,"Ġdisp":4501,"ez":4502,"Ġjumped":4503,"Ġbart":4504,"Ġ()":4505,"Ġtongue":4506,"Ġanna":4507,"sn":4508,"hol":4509,"ences":4510,"Ġadmin":4511,"gypt":4512,"Ġrules":4513,"iot":4514,"Ġmud":4515,"Ġmail":4516,"Ġstudio":4517,"real":4518,"Ġsixty":4519,"Ġpsy":4520,"Ġsword":4521,"ems":4522,"cont":4523,"Ġchannel":4524,"Ġcrime":4525,"Ġafrica":4526,"Ġcases":4527,"ashing":4528,"Ġbrazil":4529,"Ġuses":4530,"lands":4531,"Ġevil":4532,"Ġplans":4533,"Ġbarn":4534,"Ġevents":4535,"Ġrust":4536,"Ġvalley":4537,"sar":4538,"Ġdare":4539,"Ġwheels":4540,"iling":4541,"Ġentertain":4542,"Ġrate":4543,"Ġshowing":4544,"Ġspeech":4545,"Ġresc":4546,"Ġfaces":4547,"Ġbatter":4548,"Ġotherwise":4549,"Ġforgotten":4550,"aling":4551,"babbles":4552,"Ġpants":4553,"Ġrisk":4554,"Ġspain":4555,"--\"":4556,"Ġbits":4557,"Ġexcell":4558,"Ġcarrying":4559,"Ġsuggested":4560,"nothing":4561,"Ġgentlemen":4562,"Ġbark":4563,"Ġhook":4564,"Ġartist":4565,"Ġegypt":4566,"oted":4567,"host":4568,"Ġwha":4569,"Ġdeterm":4570,"Ġremained":4571,"Ġsurface":4572,"rot":4573,"note":4574,"Ġkinds":4575,"Ġrecords":4576,"sl":4577,"Ġstudents":4578,"Ġproceed":4579,"Ġbee":4580,"Ġcommander":4581,"dies":4582,"Ġshel":4583,"Ġservices":4584,"Ġsports":4585,"known":4586,"Ġpractice":4587,"Ġopportunity":4588,"Ġhind":4589,"Ġparli":4590,"sorry":4591,"Ġcit":4592,"Ġmarriage":4593,"Ġwhist":4594,"Ġloves":4595,"only":4596,"ere":4597,"Ġaustri":4598,"irst":4599,"Ġlibr":4600,"Ġdoors":4601,"Ġmanager":4602,"Ġdrinking":4603,"Ġgay":4604,"Ġmodel":4605,"Ġquietly":4606,"hest":4607,"Ġsandwich":4608,"Ġpossibly":4609,"Ġyell":4610,"Ġfarmer":4611,"Ġappearance":4612,"Ġknee":4613,"Ġzoo":4614,"buted":4615,"isa":4616,"cked":4617,"Ġvictim":4618,"Ġleading":4619,"Ġcontinue":4620,"Ġshouted":4621,"atives":4622,"Ġairport":4623,"Ġtradition":4624,"Ġbessie":4625,"hips":4626,"Ġneighbor":4627,"Ġavail":4628,"Ġnovel":4629,"uhuh":4630,"Ġopin":4631,"jes":4632,"Ġtoast":4633,"Ġdread":4634,"Ġcommittee":4635,"Ġislands":4636,"Ġparliament":4637,"really":4638,"Ġolympics":4639,"rick":4640,"hic":4641,"Ġwhoa":4642,"Ġpoet":4643,"Ġgor":4644,"Ġspider":4645,"Ġmale":4646,"oc":4647,"Ġswit":4648,"Ġq":4649,"rill":4650,"Ġrope":4651,"Ġstayed":4652,"mama":4653,"Ġriding":4654,"Ġsecurity":4655,"Ġships":4656,"Ġstir":4657,"Ġfavour":4658,"Ġafterwards":4659,"Ġstands":4660,"Ġopposite":4661,"Ġast":4662,"Ġdere":4663,"Ġconstit":4664,"Ġdefinitely":4665,"Ġross":4666,"happy":4667,"Ġswed":4668,"after":4669,"Ġformula":4670,"Ġfund":4671,"Ġbac":4672,"Ġawards":4673,"Ġbarb":4674,"Ġbare":4675,"Ġstyle":4676,"Ġtie":4677,"Ġartic":4678,"Ġpenn":4679,"pan":4680,"Ġpercent":4681,"Ġlaura":4682,"Ġvocal":4683,"Ġcontract":4684,"Ġofficial":4685,"Ġextreme":4686,"Ġsalt":4687,"Ġsuspect":4688,"Ġcondition":4689,"worth":4690,"Ġcities":4691,"Ġladd":4692,"Ġbump":4693,"Ġboats":4694,"Ġaddition":4695,"Ġsafety":4696,"kar":4697,"iety":4698,"Ġforces":4699,"Ġsuc":4700,"Ġintell":4701,"wing":4702,"Ġupset":4703,"green":4704,"Ġ190":4705,"Ġsits":4706,"Ġinstit":4707,"Ġempire":4708,"Ġreck":4709,"Ġcolour":4710,"Ġsanta":4711,"__":4712,"Ġwalls":4713,"Ġhal":4714,"ano":4715,"Ġillustr":4716,"Ġsake":4717,"Ġoffered":4718,"Ġplayers":4719,"Ġyounger":4720,"year":4721,"Ġkore":4722,"Ġpurs":4723,"Ġhelping":4724,"Ġholiday":4725,"Ġwine":4726,"Ġrings":4727,"Ġbike":4728,"Ġles":4729,"Ġmate":4730,"llen":4731,"Ġourselves":4732,"Ġschools":4733,"Ġna":4734,"Ġstaff":4735,"Ġcontact":4736,"Ġcloth":4737,"Ġgreatest":4738,"Ġbutt":4739,"bon":4740,"ala":4741,"pill":4742,"Ġtract":4743,"Ġknight":4744,"Ġpapers":4745,"vert":4746,"Ġeasier":4747,"ols":4748,"Ġol":4749,"plane":4750,"actually":4751,"Ġnineteen":4752,"cra":4753,"iana":4754,"bob":4755,"cry":4756,"ching":4757,"Ġcoach":4758,"Ġvictor":4759,"Ġsecretary":4760,"Ġwise":4761,"chuckles":4762,"Ġasse":4763,"Ġfrancis":4764,"ju":4765,"Ġmerc":4766,"Ġghost":4767,"Ġnarrow":4768,"Ġdirectly":4769,"Ġobl":4770,"Ġkar":4771,"Ġdecision":4772,"Ġhamm":4773,"chester":4774,"Ġ2000":4775,"silence":4776,"Ġsmiled":4777,"Ġapparently":4778,"Ġ~":4779,"onse":4780,"Ġclown":4781,"Ġacademy":4782,"Ġtrop":4783,"itation":4784,"Ġdoin":4785,"Ġdesk":4786,"Ġdutch":4787,"mn":4788,"tles":4789,"Ġholy":4790,"Ġstring":4791,"ounce":4792,"ases":4793,"Ġforeign":4794,"Ġlem":4795,"Ġretired":4796,"Ġpapa":4797,"Ġfest":4798,"Ġfashion":4799,"ette":4800,"Ġmont":4801,"het":4802,"Ġwhispered":4803,"filler":4804,"Ġkeeps":4805,"ucky":4806,"Ġattend":4807,"Ġlawyer":4808,"sho":4809,"Ġshook":4810,"izing":4811,"Ġfrightened":4812,"Ġsuccessful":4813,"Ġideas":4814,"Ġmort":4815,"Ġmaid":4816,"Ġtowel":4817,"Ġgy":4818,"Ġballs":4819,"Ġbisc":4820,"nice":4821,"Ġkim":4822,"ission":4823,"Ġaffect":4824,"Ġcru":4825,"dro":4826,"vey":4827,"nods":4828,"Ġwilling":4829,"Ġreply":4830,"Ġavo":4831,"Ġmicrophone":4832,"Ġaver":4833,"Ġmonday":4834,"Ġven":4835,"Ġsurely":4836,"ado":4837,"Ġsomewhat":4838,"cise":4839,"Ġeliz":4840,"Ġvirgin":4841,"abeth":4842,"eping":4843,"Ġinn":4844,"Ġsoftly":4845,"Ġknowing":4846,"âĢĿ.":4847,"onment":4848,"Ġmetal":4849,"Ġeighty":4850,"Ġbenef":4851,"ais":4852,"Ġcircum":4853,"Ġfurn":4854,"Ġeaten":4855,"Ġteams":4856,"Ġbin":4857,"Ġhorri":4858,"Ġstruct":4859,"Ġsoldier":4860,"Ġupper":4861,"Ġpier":4862,"Ġbringing":4863,"Ġanxious":4864,"Ġknowledge":4865,"Ġindust":4866,"Ġchest":4867,"Ġfreed":4868,"Ġwedding":4869,"Ġlim":4870,"from":4871,"sed":4872,"bout":4873,"Ġsilent":4874,"Ġwan":4875,"reg":4876,"Ġadmir":4877,"ials":4878,"Ġnursery":4879,"ram":4880,"Ġmemory":4881,"Ġtext":4882,"Ġfairly":4883,"hh":4884,"cream":4885,"Ġrod":4886,"Ġbathroom":4887,"Ġsucceed":4888,"Ġchairman":4889,"Ġcomfortable":4890,"ipper":4891,"Ġbeast":4892,"Ġballoon":4893,"Ġmentioned":4894,"fection":4895,"Ġforced":4896,"Ġ2005":4897,"ern":4898,"Ġparticularly":4899,"first":4900,"Ġjeff":4901,"Ġfairy":4902,"Ġexplained":4903,"Ġbiggest":4904,"Ġincluded":4905,"Ġmamma":4906,"ev":4907,"Ġsettled":4908,"umber":4909,"Ġmuseum":4910,"fire":4911,"Ġchic":4912,"Ġperfectly":4913,"stood":4914,"Ġbrand":4915,"Ġshopping":4916,"Ġhills":4917,"fle":4918,"ffic":4919,"six":4920,"Ġflew":4921,"aret":4922,"Ġpages":4923,"Ġshr":4924,"Ġbid":4925,"foot":4926,"ji":4927,"ola":4928,"Ġfancy":4929,"Ġwings":4930,"Ġboots":4931,"Ġgiant":4932,"itar":4933,"Ġhay":4934,"Ġstro":4935,"Ġlog":4936,"inger":4937,"Ġwaste":4938,"Ġali":4939,"Ġwaited":4940,"ental":4941,"Ġprove":4942,"Ġdecide":4943,"ulous":4944,"Ġbrill":4945,"iii":4946,"Ġcancer":4947,"door":4948,"Ġappl":4949,"bly":4950,"Ġtrick":4951,"fish":4952,"Ġdeveloped":4953,"Ġrepeated":4954,"law":4955,"Ġyard":4956,"throw":4957,"Ġmagn":4958,"Ġ2004":4959,"Ġtid":4960,"ension":4961,"Ġpizza":4962,"ini":4963,"Ġruth":4964,"Ġrush":4965,"Ġpump":4966,"cel":4967,"Ġhanging":4968,"Ġbuddy":4969,"Ġsees":4970,"Ġcopy":4971,"Ġmere":4972,"Ġstudied":4973,"Ġsin":4974,"cely":4975,"pull":4976,"Ġcub":4977,"sequ":4978,"Ġvent":4979,"Ġlarger":4980,"arr":4981,"pur":4982,"Ġhighest":4983,"Ġchris":4984,"Ġmedical":4985,"Ġmetho":4986,"ache":4987,"Ġglasses":4988,"Ġdisease":4989,"Ġ40":4990,"aterpill":4991,"Ġinno":4992,"mend":4993,"Ġpalace":4994,"Ġworst":4995,"iano":4996,"Ġfence":4997,"ckey":4998,"Ġdeb":4999,"Ġpow":5000,"voc":5001,"Ġsite":5002,"Ġfeels":5003,"inda":5004,"Ġwriter":5005,"Ġterrit":5006,"mary":5007,"Ġindians":5008,"Ġ2001":5009,"aft":5010,"Ġrespo":5011,"Ġhearing":5012,"Ġgordon":5013,"Ġepisode":5014,"Ġarchi":5015,"Ġroger":5016,"Ġjones":5017,"Ġpassing":5018,"Ġpred":5019,"ification":5020,"Ġproperly":5021,"Ġenvir":5022,"Ġthoughts":5023,"Ġopens":5024,"squ":5025,"Ġthor":5026,"Ġresponse":5027,"\"]":5028,"chief":5029,"Ġescap":5030,"Ġvote":5031,"while":5032,"Ġcats":5033,"Ġpowerful":5034,"Ġemper":5035,"fortun":5036,"Ġphotog":5037,"Ġpainting":5038,"aries":5039,"Ġhunt":5040,"isions":5041,"whispers":5042,"Ġassemb":5043,"Ġnomin":5044,"ota":5045,"Ġmoo":5046,"Ġfal":5047,"Ġtransport":5048,"Ġclearly":5049,"gal":5050,"asty":5051,"Ġappreci":5052,"Ġacting":5053,"Ġry":5054,"Ġsigned":5055,"Ġremarked":5056,"Ġcute":5057,"pering":5058,"yellow":5059,"thi":5060,"eat":5061,"ners":5062,"Ġwid":5063,"nam":5064,"Ġneat":5065,"Ġcris":5066,"Ġgab":5067,"making":5068,"unts":5069,"place":5070,"atory":5071,"uits":5072,"Ġweird":5073,"ĠâĢĶ":5074,"Ġtalks":5075,"holic":5076,"Ġmatters":5077,"draw":5078,"iest":5079,"Ġpencil":5080,"Ġassociation":5081,"Ġess":5082,"Ġrome":5083,"Ġhurried":5084,"Ġblanket":5085,"Ġcoo":5086,"Ġrelated":5087,"Ġ0":5088,"Ġfran":5089,"Ġdomin":5090,"Ġserve":5091,"Ġforever":5092,"Ġ1990":5093,"Ġskill":5094,"ett":5095,"Ġprepar":5096,"je":5097,"Ġduh":5098,"viet":5099,"Ġmile":5100,"Ġafford":5101,"Ġburst":5102,"Ġadministr":5103,"Ġgat":5104,"Ġkeys":5105,"Ġlatter":5106,"Ġrelease":5107,"Ġdinosaur":5108,"ulty":5109,"Ġtypes":5110,"Ġdump":5111,"Ġrank":5112,"Ġjoseph":5113,"isher":5114,"Ġfaster":5115,"Ġpressure":5116,"Ġdiam":5117,"Ġsink":5118,"Ġchuck":5119,"owed":5120,"Ġthrown":5121,"lim":5122,"morrow":5123,"yup":5124,"Ġmister":5125,"Ġfac":5126,"Ġgrandmother":5127,"grand":5128,"Ġbomb":5129,"Ġpushed":5130,"Ġthin":5131,"rael":5132,"motion":5133,"about":5134,"Ġtheory":5135,"holds":5136,"bits":5137,"Ġfired":5138,"Ġknocked":5139,"Ġgoal":5140,"Ġqual":5141,"ania":5142,"Ġcanad":5143,"Ġbran":5144,"Ġgather":5145,"Ġexer":5146,"Ġconcerned":5147,"bi":5148,"Ġrealize":5149,"opher":5150,"Ġmagazine":5151,"Ġhmm":5152,"Ġelected":5153,"rees":5154,"Ġveget":5155,"Ġfought":5156,"alled":5157,"Ġknees":5158,"Ġwitness":5159,"Ġavailable":5160,"Ġplanet":5161,"Ġjustice":5162,"Ġlanguages":5163,"Ġkinda":5164,"ona":5165,"Ġlibrary":5166,"Ġpoo":5167,"talk":5168,"Ġafrican":5169,"Ġdisappeared":5170,"Ġprefer":5171,"Ġpardon":5172,"Ġunc":5173,"Ġkenn":5174,"Ġsmiling":5175,"scream":5176,"Ġbent":5177,"lect":5178,"Ġarth":5179,"ussy":5180,"Ġcant":5181,"Ġrot":5182,"Ġweeke":5183,"Ġhaw":5184,"Ġproperty":5185,"Ġpolicy":5186,"Ġrare":5187,"Ġprotest":5188,"Ġremembered":5189,"uments":5190,"mission":5191,"Ġvalue":5192,"Ġpant":5193,"rol":5194,"Ġflorida":5195,"Ġnerv":5196,"met":5197,"Ġfeelings":5198,"ansas":5199,"fin":5200,"Ġcrash":5201,"Ġsymp":5202,"asc":5203,"iggles":5204,"Ġwondering":5205,"never":5206,"Ġsposta":5207,"Ġopinion":5208,"Ġ189":5209,"Ġchicago":5210,"_.":5211,"Ġtent":5212,"gi":5213,"Ġamazing":5214,"Ġexcellent":5215,"icked":5216,"Ġvoices":5217,"ware":5218,"inated":5219,"Ġleaf":5220,"Ġbaseball":5221,"Ġire":5222,"Ġatl":5223,"Ġgreek":5224,"aign":5225,"Ġwished":5226,"Ġbul":5227,"Ġpositive":5228,"list":5229,"Ġgang":5230,"Ġ\"'":5231,"lend":5232,"asp":5233,"Ġaverage":5234,"Ġscreen":5235,"Ġsquir":5236,"Ġren":5237,"Ġstones":5238,"Ġbunch":5239,"pha":5240,"Ġunderstood":5241,"ilet":5242,"Ġfully":5243,"Ġloose":5244,"oring":5245,"Ġfishing":5246,"road":5247,"Ġron":5248,"Ġcooking":5249,"Ġarrange":5250,"Ġtied":5251,"Ġreve":5252,"Ġdozen":5253,"raph":5254,"....":5255,"Ġthroughout":5256,"Ġdrawn":5257,"Ġfailed":5258,"vering":5259,"Ġseriously":5260,"Ġconfir":5261,"Ġrevolution":5262,"Ġthrowing":5263,"Ġagent":5264,"Ġrussia":5265,"Ġaustralian":5266,"Ġtroops":5267,"dog":5268,"Ġadvant":5269,"Ġrelationship":5270,"hand":5271,"Ġlone":5272,"Ġpatient":5273,"haha":5274,"whoa":5275,"Ġclou":5276,"Ġblo":5277,"Ġenvironment":5278,"walk":5279,"Ġfrequ":5280,"Ġmaterial":5281,"Ġdying":5282,"aly":5283,"Ġcompos":5284,"Ġpurdie":5285,"Ġsoup":5286,"Ġdarkness":5287,"Ġprevious":5288,"mine":5289,"ingu":5290,"Ġpak":5291,"Ġtru":5292,"Ġmedal":5293,"Ġactivity":5294,"Ġaware":5295,"Ġexecut":5296,"Ġstatistics":5297,"icking":5298,"Ġgradu":5299,"craft":5300,"angle":5301,"Ġshoulders":5302,"Ġfriendly":5303,"Ġnation":5304,"playing":5305,"Ġcups":5306,"Ġjoke":5307,"Ġtotally":5308,"bled":5309,"Ġcomment":5310,"jan":5311,"Ġbol":5312,"Ġmap":5313,"Ġcampaign":5314,"Ġmagnet":5315,"Ġdrove":5316,"Ġtummy":5317,"Ġmirror":5318,"Ġtechn":5319,"quar":5320,"Ġaft":5321,"pol":5322,"Ġbush":5323,"Ġcaterpill":5324,"Ġsoviet":5325,"Ġsteven":5326,"Ġmedia":5327,"Ġtravell":5328,"Ġ1980":5329,"Ġbrook":5330,"Ġpresence":5331,"Ġmerry":5332,"Ġinit":5333,"Ġfond":5334,"Ġangel":5335,"Ġjean":5336,"pretend":5337,"Ġmexico":5338,"rs":5339,"Ġbis":5340,"Ġprogress":5341,"Ġsang":5342,"Ġken":5343,"gust":5344,"Ġneg":5345,"Ġdrunk":5346,"Ġisrael":5347,"Ġsection":5348,"Ġtreasure":5349,"Ġnetwork":5350,"Ġvehi":5351,"ients":5352,"osh":5353,"Ġ2003":5354,"Ġfolks":5355,"22":5356,"sters":5357,"Ġwave":5358,"bot":5359,"Ġends":5360,"remember":5361,"Ġlies":5362,"Ġfan":5363,"Ġdom":5364,"Ġrise":5365,"Ġgarage":5366,"Ġshooting":5367,"Ġpear":5368,"Ġnav":5369,"Ġ[$":5370,"roz":5371,"Ġhockey":5372,"Ġvic":5373,"Ġobjects":5374,"acks":5375,"Ġstom":5376,"Ġtouched":5377,"hor":5378,"Ġburied":5379,"rog":5380,"Ġcot":5381,"Ġdrops":5382,"Ġhunting":5383,"Ġjimmy":5384,"Ġexpression":5385,"Ġireland":5386,"eta":5387,"Ġjig":5388,"Ġfigures":5389,"Ġreported":5390,"Ġemperor":5391,"zo":5392,"Ġpulling":5393,"Ġplastic":5394,"Ġdetermined":5395,"Ġaim":5396,"Ġgoodbye":5397,"Ġcommunic":5398,"Ġpros":5399,"Ġbecoming":5400,"Ġfeather":5401,"Ġshame":5402,"Ġserge":5403,"soft":5404,"ishment":5405,"gir":5406,"Ġodd":5407,"Ġsomehow":5408,"Ġreview":5409,"tis":5410,"Ġgift":5411,"Ġug":5412,"Ġentirely":5413,"Ġcock":5414,"di":5415,"Ġ188":5416,"Ġlit":5417,"Ġinstant":5418,"ilities":5419,"Ġkilling":5420,"etch":5421,"ige":5422,"win":5423,"Ġanti":5424,"Ġtale":5425,"Ġdamage":5426,"Ġfamilies":5427,"asing":5428,"Ġtommy":5429,"Ġsubst":5430,"bury":5431,"Ġboxes":5432,"Ġterror":5433,"Ġgain":5434,"Ġcommission":5435,"Ġstaying":5436,"Ġmulti":5437,"Ġcloud":5438,"Ġexcit":5439,"Ġcharacters":5440,"Ġcurrently":5441,"Ġfamiliar":5442,"Ġbrilliant":5443,"Ġeleanor":5444,"Ġrealized":5445,"Ġmixed":5446,"Ġcher":5447,"nah":5448,"tained":5449,"Ġfortune":5450,"Ġjon":5451,"Ġbitch":5452,"Ġaside":5453,"aws":5454,"Ġ2002":5455,"rant":5456,"Ġunfortun":5457,"Ġdescribed":5458,"owing":5459,"Ġincludes":5460,"Ġstranger":5461,"poor":5462,"tin":5463,"Ġforgive":5464,"Ġtha":5465,"Ġwaves":5466,"Ġfold":5467,"Ġiii":5468,"Ġhidden":5469,"Ġedward":5470,"Ġstops":5471,"Ġcompanion":5472,"Ġtask":5473,"sung":5474,"Ġtractor":5475,"Ġtransl":5476,"Ġpointing":5477,"Ġpenny":5478,"Ġdrama":5479,"Ġ186":5480,"Ġpointed":5481,"Ġsignal":5482,"kiss":5483,"Ġreasons":5484,"Ġtrains":5485,"choo":5486,"Ġdegree":5487,"Ġevidently":5488,"Ã¤":5489,"Ġsocks":5490,"Ġcircumst":5491,"othy":5492,"Ġheight":5493,"Ġentr":5494,"Ġpulls":5495,"Ġcarriage":5496,"know":5497,"Ġgrandpa":5498,"Ġindividual":5499,"Ġfreedom":5500,"Ġtoilet":5501,"âĮĪ":5502,"esty":5503,"Ġproduction":5504,"Ġdata":5505,"Ġzeal":5506,"Ġcitiz":5507,"Ġgrandfather":5508,"ibility":5509,"Ġcrayons":5510,"Ġperformance":5511,"Ġrecently":5512,"chair":5513,"Ġscotland":5514,"Ġelizabeth":5515,"Ġcourage":5516,"Ġstrike":5517,"Ġkm":5518,"urt":5519,"Ġjum":5520,"Ġtough":5521,"hs":5522,"nope":5523,"Ġforms":5524,"ales":5525,"Ġadvice":5526,"Ġheav":5527,"Ġpossess":5528,"199":5529,"Ġfifth":5530,"Ġpaying":5531,"Ġnewspaper":5532,"Ġmatches":5533,"aging":5534,"Ġjung":5535,"Ġfart":5536,"Ġga":5537,"Ġtechno":5538,"berries":5539,"Ġbears":5540,"Ġdesper":5541,"fraser":5542,"Ġsisters":5543,"Ġwore":5544,"Ġplus":5545,"Ġdesire":5546,"Ġrailway":5547,"lam":5548,"ential":5549,"Ġeffects":5550,"Ġobserved":5551,"Ġgrey":5552,"Ġsweetheart":5553,"ĠÂ¶":5554,"',":5555,"25":5556,"Ġladder":5557,"Ġadventure":5558,"Ġrecording":5559,"Ġintellig":5560,"Ġdistur":5561,"Ġcanadian":5562,"Ġpale":5563,"Ġexchan":5564,"Ġburning":5565,"Ġgathered":5566,"Ġ[.":5567,"aring":5568,"Ġcatholic":5569,"ennis":5570,"kee":5571,"Ġsteve":5572,"Ġfortun":5573,"Ġandy":5574,"aboo":5575,"Ġsuspic":5576,"Ġgrap":5577,"Ġmeas":5578,"Ġinstr":5579,"eleanor":5580,"Ġtoes":5581,"Ġhom":5582,"Ġward":5583,"Ġlocked":5584,"Ġcave":5585,"Ġaer":5586,"gging":5587,"ctors":5588,"Ġgoat":5589,"Ġjimmie":5590,"Ġtip":5591,"Ġload":5592,"Ġbrad":5593,"eps":5594,"Ġinha":5595,"ulations":5596,"Ġexcitement":5597,"cture":5598,"Ġpartner":5599,"Ġcontri":5600,"Ġhorrible":5601,"Ġarthur":5602,"Ġyards":5603,"Ġcurious":5604,"Ġtank":5605,".âĢĻ":5606,"Ġbuff":5607,"Ġcutting":5608,"Ġjumping":5609,"Ġweekend":5610,"Ġcash":5611,"Ġconserv":5612,"Ġcandy":5613,"Ġfier":5614,"Ġcontr":5615,"Ġindependent":5616,"asy":5617,"Ġdreams":5618,"Ġseventy":5619,"enced":5620,"Ġbreaking":5621,"Ġfolk":5622,"40":5623,"Ġslept":5624,"Ġbuildings":5625,"Ġqueer":5626,"Ġshan":5627,"Ġdeer":5628,"vis":5629,"Ġdunno":5630,"pot":5631,"Ġbene":5632,"igned":5633,"Ġfant":5634,"Ġjulia":5635,"Ġscore":5636,"Ġreceive":5637,"Ġslightly":5638,"Ġachie":5639,"Ġgently":5640,"Ġmadam":5641,"Ġnormally":5642,"Ġculture":5643,"Ġjerry":5644,"ari":5645,"Ġdrum":5646,"Ġspill":5647,"Ġcookies":5648,"Ġauthority":5649,"bird":5650,"Ġpony":5651,"Ġsymb":5652,"Ġbast":5653,"Ġcommer":5654,"Ġtraffic":5655,"Ġdawn":5656,"mi":5657,"Ġau":5658,"Ġsche":5659,"Ġactive":5660,"Ġpicking":5661,"Ġjail":5662,"iece":5663,"Ġprisoners":5664,"part":5665,"Ġstreets":5666,"Ġcraft":5667,"neath":5668,"Ġairplane":5669,"Ġtheat":5670,"cod":5671,"Ġsore":5672,"Ġrice":5673,"inc":5674,"Ġcoal":5675,"ahhah":5676,"Ġbern":5677,"Ġscarcely":5678,"Ġowner":5679,"Ġgodd":5680,"Ġindustry":5681,"Ġcheek":5682,"Ġweapons":5683,"ule":5684,"Ġnut":5685,"Ġseparate":5686,"Ġwooden":5687,"istic":5688,"Ġgram":5689,"Ġhabit":5690,"Ġko":5691,"aming":5692,"Ġash":5693,"Ġrecorded":5694,"Ġdestroyed":5695,"cuse":5696,"ata":5697,"Ġamericans":5698,"Ġstudent":5699,"Ġboston":5700,"Ġaccess":5701,"vocalize":5702,"Ġplanning":5703,"Ġcongress":5704,"Ġissue":5705,"Ġbranch":5706,"Ġinterview":5707,"Ġetc":5708,"Ġdish":5709,"Ġshock":5710,"Ġmayor":5711,"Ġwhenever":5712,"ares":5713,"Ġmarg":5714,"Ġlearning":5715,"Ġtarget":5716,"Ġfeatures":5717,"lot":5718,"arily":5719,"Ġchase":5720,"vid":5721,"mad":5722,"lets":5723,"Ġwondered":5724,"Ġscientists":5725,"unnel":5726,"Ġ31":5727,"Ġ1970":5728,"Ġscri":5729,"Ġoriginally":5730,"Ġeventually":5731,"Ġfields":5732,"Ġhandsome":5733,"Ġlaws":5734,"Ġrequest":5735,"ĠâĮĬ":5736,"Ġmainly":5737,"Ġneighbour":5738,"Ġcliff":5739,"iance":5740,"too":5741,"Ġresist":5742,"Ġholes":5743,"Ġborder":5744,"Ġmeasure":5745,"Ġmob":5746,"Ġuseful":5747,"Ġbutterfly":5748,"Ġstandard":5749,"perhaps":5750,"Ġrelax":5751,"Ġcompanies":5752,"idents":5753,"Ġbone":5754,"Ġindic":5755,"Ġinstru":5756,"Ġrolling":5757,"Ġreligion":5758,"Ġautom":5759,"Ġdorothy":5760,"umn":5761,"Ġclouds":5762,"sty":5763,"Ġencour":5764,"Ġowl":5765,"Ġoli":5766,"Ġowned":5767,"Ġpac":5768,"Ġbeneath":5769,"Ġstepped":5770,"Ġpuppy":5771,"Ġcredit":5772,"Ġbrian":5773,"Ġsole":5774,"Ġestablished":5775,"care":5776,"Ġarrow":5777,"were":5778,"uesday":5779,"Ġlistened":5780,"Ġproved":5781,"mu":5782,"Ġbust":5783,"Ġhut":5784,"Ġinfluence":5785,"23":5786,"Ġwra":5787,"Ġgil":5788,"hess":5789,"ucle":5790,"Ġwipe":5791,"Ġflash":5792,"Ġbones":5793,"Ġlatin":5794,"Ġspite":5795,"bin":5796,"din":5797,"apt":5798,"nor":5799,"Ġvictory":5800,"Ġlifted":5801,"Ġdyn":5802,"bey":5803,"Ġcreature":5804,"anches":5805,"Ġbodies":5806,"Ġaid":5807,"zerland":5808,"Ġhelps":5809,"Ġblame":5810,"ties":5811,"Ġhearts":5812,"Ġdoo":5813,"Ġpee":5814,"Ġchairs":5815,"Ġwire":5816,"ella":5817,"Ġrapidly":5818,"Ġcord":5819,"Ġbecomes":5820,"Ġrecorder":5821,"Ġfederal":5822,"Ġtowns":5823,"Ġwounded":5824,"zzz":5825,"dat":5826,"Ġ2023":5827,"Ġbags":5828,"mal":5829,"Ġlabour":5830,"uses":5831,"aun":5832,"icy":5833,"inson":5834,"Ġsplend":5835,"Ġnotes":5836,"Ġpilot":5837,"Ġtrial":5838,"Ġswitzerland":5839,"Ġperformed":5840,"Ġshadow":5841,"Ġrestaur":5842,"Ġangeles":5843,"Ġnervous":5844,"wan":5845,"Ġï¿½ï¿½ï¿½ï¿½":5846,"Ġresults":5847,"Ġturkey":5848,"Ġjigsaw":5849,"Ġlink":5850,"oy":5851,"Ġcaterpillar":5852,"Ġdivided":5853,"Ġprevent":5854,"Ġnearer":5855,"Ġpity":5856,"itcher":5857,"Ġcode":5858,"together":5859,"Ġdragon":5860,"Ġours":5861,"Ġleaders":5862,"Ġremoved":5863,"urance":5864,"gers":5865,"Ġrent":5866,"Ġpakistan":5867,"Ġlamb":5868,"Ġdemocratic":5869,"yay":5870,"Ġjac":5871,"Ġpean":5872,"ria":5873,"Ġtrunk":5874,"ursday":5875,"Ġfrogs":5876,"Ġhorsie":5877,"hus":5878,"Ġyep":5879,"Ġadop":5880,"Ġspecific":5881,"Ġalarm":5882,"Ġcomedy":5883,"Ġgreet":5884,"Ġsorts":5885,"nina":5886,"untary":5887,"Ġguil":5888,"oma":5889,"Ġraise":5890,"Ġcorpor":5891,"Ġenjoyed":5892,"Ġracing":5893,"kf":5894,"uf":5895,"Ġing":5896,"ito":5897,"Ġjacket":5898,"icole":5899,"music":5900,"nce":5901,"Ġbio":5902,"something":5903,"Ġxx":5904,"Ġfu":5905,"Ġmarks":5906,"Ġmusical":5907,"Ġdetective":5908,"eding":5909,"Ġequal":5910,"Ġdemon":5911,"Ġpy":5912,"dri":5913,"Ġfaint":5914,"omb":5915,"Ġmatt":5916,"Ġtooth":5917,"Ġ1960":5918,"Ġnina":5919,"Ġhesit":5920,"help":5921,"Ġdifficulty":5922,"rr":5923,"Ġsaus":5924,"Ġmighty":5925,"rison":5926,"Ġbritain":5927,"Ġsid":5928,"Ġwaters":5929,"hett":5930,"Ġflore":5931,"Ġoblig":5932,"boo":5933,"Ġunus":5934,"Ġapartment":5935,"Ġreligious":5936,"\"?":5937,"Ġlam":5938,"Ġguitar":5939,"Ġthousands":5940,"ican":5941,"Ġdestroy":5942,"Ġlanded":5943,"Ġdiamond":5944,"tar":5945,"Ġgreatly":5946,"Ġcreate":5947,"turns":5948,"Ġrhy":5949,"Ġfleet":5950,"!'":5951,"keys":5952,"Ġwinn":5953,"Ġkings":5954,"coughs":5955,"Ġ(;":5956,"Ġarrang":5957,"erves":5958,"Ġ1999":5959,"Ġanton":5960,"Ġinvited":5961,"Ġexciting":5962,"Ġmas":5963,"Ġspare":5964,"Ġstomach":5965,"Ġsons":5966,"Ġthunder":5967,"Ġsigns":5968,"21":5969,"Ġwashed":5970,"Ġdoggie":5971,"Ġpeggy":5972,"Ġconnect":5973,"Ġcompetition":5974,"Ġjournal":5975,"Ġlosing":5976,"igr":5977,"Ġawake":5978,"Ġglance":5979,"Ġgeog":5980,"Ġpolly":5981,"Ġdesce":5982,"Ġjobs":5983,"Ġclimate":5984,"ousers":5985,"engers":5986,"Ġadvantage":5987,"Ġunderneath":5988,"Ġdrown":5989,"Ġyum":5990,"Ġtender":5991,"Ġpure":5992,"Ġath":5993,"Ġdolls":5994,"Ġlonely":5995,"jack":5996,"Ġelder":5997,"Ġlack":5998,"Ġexperien":5999,"Ġborrow":6000,"Ġald":6001,"Ġbeer":6002,"Ġax":6003,"Ġrooms":6004,"Ġpurse":6005,"long":6006,"Ġcouch":6007,"Ġhomes":6008,"Ġwing":6009,"Ġlege":6010,"Ġzealand":6011,"thew":6012,"Ġresponsible":6013,"Ġirish":6014,"Ġrug":6015,"ops":6016,"Ġrum":6017,"Ġordinary":6018,"giggles":6019,"umed":6020,"pointing":6021,"Ġcompeted":6022,"Ġreckon":6023,"Ġmechan":6024,"Ġshift":6025,"Ġclosely":6026,"engu":6027,"Ġtruly":6028,"Ġrelief":6029,"ulf":6030,"minal":6031,"Ġpitch":6032,"Ġshower":6033,"Ġjar":6034,"Ġphilos":6035,"lou":6036,"Ġoperation":6037,"Ġrejo":6038,"yl":6039,"nesday":6040,"24":6041,"Ġunif":6042,"Ġeats":6043,"Ġsweetie":6044,"Ġugly":6045,"Ġcomr":6046,"Ġsticks":6047,"Ġelev":6048,"Ġnucle":6049,"iation":6050,"non":6051,"Ġanno":6052,"Ġengaged":6053,"hamm":6054,"Ġsupply":6055,"Ġhath":6056,"Ġcruel":6057,"Ġsplit":6058,"?'":6059,"post":6060,"Ġlucy":6061,"Ġcandid":6062,"Ġwinning":6063,"ua":6064,"Ġbranches":6065,"Ġ1996":6066,"Ġ187":6067,"Ġdecor":6068,"Ġprisoner":6069,"Ġhammer":6070,"Ġbricks":6071,"Ġtemple":6072,"istry":6073,"Ġsquee":6074,"affe":6075,"nda":6076,"Ġshouting":6077,"Ġtreated":6078,"Ġkidding":6079,"Ġgeorg":6080,"Ġteaching":6081,"uries":6082,"Ġbrick":6083,"Ġtuesday":6084,"Ġ1992":6085,"Ġbreast":6086,"inned":6087,"Ġsystems":6088,"Ġguilty":6089,"âĢķ":6090,"Ġpile":6091,"Ġtyp":6092,"Ġpiano":6093,"Ġchanging":6094,"Ġrushed":6095,"Ġslipped":6096,"nat":6097,"Ġsource":6098,"toys":6099,"Ġsympat":6100,"had":6101,"Ġpitcher":6102,"Ġpoison":6103,"Ġguide":6104,"vy":6105,"Ġwitch":6106,"Ġeric":6107,"ava":6108,"Ġcott":6109,"Ġadmit":6110,"Ġfestival":6111,"Ġoliver":6112,"Ġcounter":6113,"Ġkil":6114,"Ġinvol":6115,"imate":6116,"Ġrode":6117,"ateg":6118,"Ġaston":6119,"Ġreact":6120,"Ġpipe":6121,"Ġlorry":6122,"itan":6123,"Ġbrings":6124,"Ġcontent":6125,"Ġdaily":6126,"Ġbadly":6127,"uous":6128,"Ġrag":6129,"Ġnoble":6130,"Ġnep":6131,"Ġshakes":6132,"Ġpresents":6133,"Ġorganization":6134,"Ġquality":6135,"Ġadvance":6136,"Ġfate":6137,"Ġmistress":6138,"Ġtam":6139,"Ġsuffe":6140,"Ġnodd":6141,"Ġconsequ":6142,"Ġchain":6143,"Ġrescue":6144,"Ġsteal":6145,"Ġconqu":6146,"icient":6147,"Ġ1998":6148,"Ġprincip":6149,"Ġtin":6150,"Ġpud":6151,"Ġsevere":6152,"org":6153,"peech":6154,"Ġcomplet":6155,"Ġlads":6156,"Ġswitch":6157,"itz":6158,"Ġstack":6159,"graphy":6160,"elle":6161,"ological":6162,"Ġcritic":6163,"ekaboo":6164,"Ġaccepted":6165,"Ġsi":6166,"Ġreplaced":6167,"ador":6168,"ila":6169,"rose":6170,"Ġaffairs":6171,"Ġthursday":6172,"Ġhoping":6173,"lock":6174,"push":6175,"Ġfarther":6176,"60":6177,"Ġsoap":6178,"Ġhurts":6179,"Ġicecream":6180,"Ġguest":6181,"Ġsmooth":6182,"low":6183,"Ġliqu":6184,"Ġallah":6185,"Ġsets":6186,"Ġign":6187,"Ġbund":6188,"Ġpattern":6189,"Ġchosen":6190,"Ġdelay":6191,"Ġhasta":6192,"Ġcircumstances":6193,"sell":6194,"Ġconce":6195,"Ġrequired":6196,"Ġduke":6197,"Ġthorough":6198,"Ġpussy":6199,"apping":6200,"Ġbelt":6201,"Ġslave":6202,"Ġrecom":6203,"Ġcows":6204,"acle":6205,"Ġconference":6206,"nament":6207,"Ġcaptured":6208,"Ġ1995":6209,"Ã©e":6210,"ĠÃ":6211,"chest":6212,"Ġchin":6213,"Ġlegal":6214,"Ġmajesty":6215,"hot":6216,"ointment":6217,"imit":6218,"centr":6219,"Ġsacri":6220,"Åį":6221,"ulated":6222,"Ġwarning":6223,"Ġrefused":6224,"Ġproof":6225,"Ġswift":6226,"Ġtoss":6227,"Ġunit":6228,"Ġintroduced":6229,"Ġpicnic":6230,"Ġwagon":6231,"Ġarmed":6232,"black":6233,"Ġparticip":6234,"Ġlane":6235,"Ġjenn":6236,"Ġplot":6237,"stein":6238,"aa":6239,"Ġnan":6240,"hore":6241,"Ġdishes":6242,"Ġpriest":6243,"Ġflorence":6244,"Ġstructure":6245,"gency":6246,"Ġdoggy":6247,"glo":6248,"Ġbuzz":6249,"],":6250,"Ġprem":6251,"Ġattacked":6252,"Ġdivor":6253,"ole":6254,"Ġcurtain":6255,"Ġtemperature":6256,"Ġdemanded":6257,"shine":6258,"Ġ1994":6259,"Ġpropos":6260,"Ġpowers":6261,"Ġpooh":6262,"Ġwednesday":6263,"Ġfocus":6264,"shouts":6265,"Ġweapon":6266,"Ġparties":6267,"Ġturtle":6268,"Ġtrousers":6269,"Ġcircus":6270,"Ġwalter":6271,"Ġspeaks":6272,"Ġschol":6273,"Ġprovided":6274,"ique":6275,"Ġrolled":6276,"iture":6277,"alo":6278,"Ġcompanions":6279,"Ġtropical":6280,"Ġdesert":6281,"emies":6282,"Ġweb":6283,"ception":6284,"Ġsatisfied":6285,"count":6286,"eight":6287,"Ġavoid":6288,"john":6289,"Ġconditions":6290,"Ġbitter":6291,"Ġexpensive":6292,"Ġrobin":6293,"Ġdrugs":6294,"Ġwre":6295,"Ġspin":6296,"Ġsergeant":6297,"Ġpassage":6298,"Ġearnest":6299,"Ġterritory":6300,"Ġescaped":6301,"Ġti":6302,"Ġkang":6303,"Ġeighteen":6304,"Ġuniverse":6305,"Ġrecognized":6306,"Ġplanned":6307,"bling":6308,"Ġlesson":6309,"Ġpoliceman":6310,"Ġthrows":6311,"Ġhoped":6312,"Ġlessons":6313,"Ġeagerly":6314,"Ġintended":6315,"Ġapolog":6316,"Ġsignific":6317,"Ġarts":6318,"Ġmaria":6319,"lar":6320,"enger":6321,"Ġspect":6322,"Ġuseta":6323,"alds":6324,"Ġstudies":6325,"stone":6326,"Ġages":6327,"Ġsusan":6328,"Ġapproach":6329,"Ġcrossed":6330,"Ġrear":6331,"kel":6332,"Ġjackson":6333,"eks":6334,"Ġinsp":6335,"Ġminor":6336,"Ġconstant":6337,"Ġcolon":6338,"Ġdesigned":6339,"Ã±":6340,"contin":6341,"bal":6342,"hem":6343,"Ġactual":6344,"Ġsetting":6345,"sometimes":6346,"orter":6347,"Ġremains":6348,"Ġmoments":6349,"Ġoven":6350,"Ġhumans":6351,"rec":6352,"Ġappears":6353,"Ġchamber":6354,"Ġroute":6355,"Ġdebut":6356,"Ġwoke":6357,"Ġtan":6358,"Ġconcentr":6359,"Ġyyy":6360,"Ġnancy":6361,"rences":6362,"Ġaltogether":6363,"icted":6364,"Ġsixteen":6365,"Ġtracks":6366,"Ġboom":6367,"Ġscen":6368,"wo":6369,"Ġpas":6370,"Ġgained":6371,"Ġbelief":6372,"Ġbasically":6373,"Ġnights":6374,"Ġtransfer":6375,"umbled":6376,"Ġsooner":6377,"Ġfunction":6378,"bir":6379,"erable":6380,"Ġark":6381,"Ġadventures":6382,"Ġappointed":6383,"umbling":6384,"Ġmcdon":6385,"Ġpride":6386,"Ġelim":6387,"Ġprovide":6388,"Ġvot":6389,"Ġnarr":6390,"Ġseated":6391,"Ġfinds":6392,"Ġbanana":6393,"Ġbucket":6394,"pir":6395,"Ġharder":6396,"Ġ1997":6397,"sque":6398,"Ġlisa":6399,"gery":6400,"nons":6401,"tie":6402,"Ġcarr":6403,"Ġwoo":6404,"Ġkissed":6405,"Ġappe":6406,"Ġpromot":6407,"Ġflood":6408,"Ġtechnology":6409,"Ġoak":6410,"Ġchampion":6411,"aned":6412,"Ġrand":6413,"hmm":6414,"Ġtunnel":6415,"Ġandrew":6416,"Ġpole":6417,"Ġfootnote":6418,"Ġsentence":6419,"Ġsenior":6420,"Ġentrance":6421,"Ġtreatment":6422,"pop":6423,"americ":6424,"listen":6425,"Ġjelly":6426,"gt":6427,"ability":6428,"Ġgrate":6429,"Ġpron":6430,"didn":6431,"Ġquit":6432,"Ġsplendid":6433,"ati":6434,"Ġbelongs":6435,"Ġselected":6436,"Ġassembly":6437,"using":6438,"Ġscratch":6439,"break":6440,"thanks":6441,"anne":6442,"Ġclay":6443,"Ġstern":6444,"Ġlaughter":6445,"Ġexhi":6446,"Ġclimbed":6447,"Ġdefend":6448,"corn":6449,"Ġsally":6450,"Ġbold":6451,"excuse":6452,"ouri":6453,"umes":6454,"Ġconnected":6455,"emic":6456,"Ġinnocent":6457,"Ġwrestling":6458,"mitted":6459,"Ġbeans":6460,"Ġexplos":6461,"whispered":6462,"Ġfile":6463,"Ġpunch":6464,"Ġped":6465,"Ġchips":6466,"Ġslip":6467,"Ġscary":6468,"Ġswear":6469,"tra":6470,"Ġenemies":6471,"Ġpond":6472,"Ġsylv":6473,"carl":6474,"Ġincreased":6475,"Ġgrad":6476,"opter":6477,"Ġincrease":6478,"wom":6479,"Ġnations":6480,"arian":6481,"Ġlabor":6482,"hetti":6483,"ti":6484,"Ġupside":6485,"isha":6486,"lfriend":6487,"Ġtub":6488,"Ġsorrow":6489,"urally":6490,"Ġkeen":6491,"Ġsteady":6492,"Ġbecky":6493,"Ġjess":6494,"Ġseek":6495,"Ġdisplay":6496,"Ġequip":6497,"awa":6498,"Ġholl":6499,"Ġskir":6500,"Ġcrocod":6501,"Ġphysical":6502,"Ġreven":6503,"bid":6504,"dem":6505,"Ġpatsy":6506,"Ġdot":6507,"Ġswall":6508,"Ġchemical":6509,"Ġincred":6510,"Ġcage":6511,"Ġfel":6512,"Ġpushing":6513,"ancing":6514,"Ġceased":6515,"Ġextremely":6516,"Ġmole":6517,"addle":6518,"lers":6519,"Ġshining":6520,"Ġoccurred":6521,"Ġroles":6522,"orange":6523,"Ġsequ":6524,"Ġproduce":6525,"doesn":6526,"Ġfourteen":6527,"Ġsolid":6528,"even":6529,"Ġdonald":6530,"Ġsale":6531,"isl":6532,"Ġdelicious":6533,"mont":6534,"Ġclimbing":6535,"Ġteachers":6536,"Ġnavy":6537,"Ġfireman":6538,"high":6539,"Ġcontroll":6540,"Ġvice":6541,"Ġmethod":6542,"âĻª":6543,"Ġhadta":6544,"Ġdude":6545,"Ġgosh":6546,"Ġpregn":6547,"mun":6548,"Ġcale":6549,"bc":6550,"Ġalexander":6551,"esh":6552,"Ġmarie":6553,"Ġkir":6554,"mouth":6555,"Ġscare":6556,"nik":6557,"ora":6558,"Ġgotten":6559,"Ġsending":6560,"Ġvolume":6561,"Ġtiss":6562,"Ġ1988":6563,"fers":6564,"hur":6565,"Ġmood":6566,"Ġdum":6567,"issa":6568,"Ġoldest":6569,"Ġdiag":6570,"yard":6571,"gun":6572,"Ġdisappear":6573,"Ġhighly":6574,"Ġdaniel":6575,"Ġcollection":6576,"Ġaffair":6577,"28":6578,"lau":6579,"cking":6580,"Ġalpha":6581,"Ġburned":6582,"Ġprotection":6583,"Ġrecent":6584,"Ġvirginia":6585,"Ġaha":6586,"Ġkindly":6587,"Ġalf":6588,"Ġaltern":6589,"boat":6590,"Ġringing":6591,"27":6592,"ux":6593,"again":6594,"Ġ1991":6595,"Ġspirits":6596,"Ġbuttons":6597,"Ġselling":6598,"una":6599,"Ġcheap":6600,"Ġsuffered":6601,"inky":6602,"Ġpassengers":6603,"Ġdelighted":6604,"Ġcooper":6605,"rich":6606,"Ġdistributed":6607,"Ġay":6608,"Ġkent":6609,"Ġbron":6610,"Ġpostman":6611,"Ġshops":6612,"Ġimper":6613,"Ġdoctors":6614,"Ġclar":6615,"Ġemergency":6616,"Ġincl":6617,"Ġportug":6618,"Ġlaz":6619,"Ġstatement":6620,"june":6621,"Ġmurm":6622,"cur":6623,"Ġdetails":6624,"Ġfiction":6625,"Ġdiss":6626,"Ġpad":6627,"hamed":6628,"Ġcig":6629,"Ġsteel":6630,"stick":6631,"umph":6632,"Ġwales":6633,"Ġblowing":6634,"writer":6635,"Ġos":6636,"Ġsexual":6637,"Ġwhit":6638,"Ġdave":6639,"Ġsunshine":6640,"Ġrecognize":6641,"Ġnether":6642,"Ġdisgust":6643,"Ġphilip":6644,"ios":6645,"Ġpigs":6646,"Ġbord":6647,"Ġcreek":6648,"Ġgods":6649,"Ġstole":6650,"rice":6651,"Ġplates":6652,"Ġauntie":6653,"Ġsprang":6654,"Ġsweden":6655,"Ġdistant":6656,"gonna":6657,"Ġmustn":6658,"moves":6659,"bage":6660,"Ġcough":6661,"alous":6662,"Ġteen":6663,"eaking":6664,"Ġcries":6665,"Ġcomplex":6666,"Ġcass":6667,"ami":6668,"Ġimprove":6669,"Ġpoll":6670,"Ġcongrat":6671,"Ġbasketball":6672,"Ġmarked":6673,"26":6674,"Ġmabel":6675,"Ġridic":6676,"Ġinhabit":6677,"Ġjenny":6678,"ulance":6679,"Ġarrested":6680,"Ġbishop":6681,"Ġseats":6682,"Ġtrump":6683,"Ġwealth":6684,"Ġapples":6685,"Ġwarri":6686,"Ġdaisy":6687,"Ġdisney":6688,"Ġducks":6689,"Ġbible":6690,"Ġtorn":6691,"Ġboot":6692,"Ġpsych":6693,"leave":6694,"Ġhundreds":6695,"ading":6696,"Ġchallen":6697,"rim":6698,"Ġholly":6699,"Ġmargaret":6700,"Ġpillow":6701,"Ġjunior":6702,"onia":6703,"Ġlt":6704,"Ġshed":6705,"Ġappreciate":6706,"Ġsings":6707,"rels":6708,"aine":6709,"Ġbree":6710,"Ġunable":6711,"hole":6712,"Ġguests":6713,"Ġdol":6714,"Ġstol":6715,"aghetti":6716,"Ġscout":6717,"Ġratt":6718,"invol":6719,"Ġunlike":6720,"Ġunknown":6721,"Ġig":6722,"love":6723,"ams":6724,"eable":6725,"Ġsandy":6726,"crying":6727,"Ġdea":6728,"Ġdeput":6729,"Ġtomato":6730,"Ġ1993":6731,"seven":6732,"Ġentertainment":6733,"involuntary":6734,"âĢľ":6735,"Ġbug":6736,"great":6737,"Ġglor":6738,"Ġtuck":6739,"Ġcaut":6740,"arts":6741,"Ġ60":6742,"Ġworn":6743,"Ġcells":6744,"Ġaustria":6745,"bang":6746,"Ġpengu":6747,"Ġdriven":6748,"aunt":6749,"Ġworkers":6750,"Ġshapes":6751,"Ġpainted":6752,"Ġfinan":6753,"chool":6754,"Ġhappiness":6755,"Ġaccompl":6756,"Ġbuying":6757,"Ġproducer":6758,"Ġrivers":6759,"Ġgoods":6760,"Ġfork":6761,"Ġspots":6762,"Ġadvanced":6763,"Ġbeth":6764,"Ġpoorly":6765,"Ġlic":6766,"Ġkiller":6767,"ailed":6768,"Ġmystery":6769,"Ġhers":6770,"Ġcents":6771,"Ġstad":6772,"Ġanch":6773,"coming":6774,"Ġpirate":6775,"Ġbubbles":6776,"eer":6777,"ias":6778,"Ġregret":6779,"Ġarranged":6780,",âĢĻ":6781,"hun":6782,"Â°":6783,"Ġcad":6784,"orted":6785,"Ġprecious":6786,"Ġrifle":6787,"inal":6788,"oons":6789,"Ġsecure":6790,"quarters":6791,"Ġconduct":6792,"Ġequipment":6793,"Ġdanny":6794,"Ġsigh":6795,"Ġbreathing":6796,"rier":6797,"Ġbann":6798,"Ġcud":6799,"Ġleans":6800,"Ġchose":6801,"Ġdeliver":6802,"Ġsylvia":6803,"Ġlif":6804,"ushi":6805,"Ġbun":6806,"Ġmak":6807,"Ġsymbol":6808,"Ġquant":6809,"Ġsailor":6810,"Ġrequire":6811,"Ġiran":6812,"Ãº":6813,"Ġexha":6814,"Ġinse":6815,"Ġseas":6816,"Ġgirlfriend":6817,"goes":6818,"geo":6819,"Ġarchite":6820,"Ġslaves":6821,"Ġpresented":6822,"sex":6823,"opl":6824,"Ġexped":6825,"Ġcau":6826,"Ġod":6827,"Ġcondu":6828,"Ġinspect":6829,"wers":6830,"Ġhaha":6831,"Ġquack":6832,"Ġannie":6833,"Ġeconomic":6834,"Ġaven":6835,"anything":6836,"Ġchess":6837,"Ġwinds":6838,"Ġ1989":6839,"198":6840,"Ġwilliams":6841,"45":6842,"Ġsig":6843,"Ġcanoe":6844,"Ġconfess":6845,"Ġissues":6846,"Ġuns":6847,".)":6848,"zing":6849,"beep":6850,"Ġlanding":6851,"Ġconfidence":6852,"ronic":6853,"bie":6854,"Ġmissouri":6855,"ridge":6856,"Ġasia":6857,"Ġwis":6858,"Ġnetherlands":6859,"lessly":6860,"Ġprincipal":6861,"Ġari":6862,"Ġboun":6863,"Ġhipp":6864,"brush":6865,"Ġsounded":6866,"Ġtig":6867,"cribed":6868,"Ġhanded":6869,"Ġbroadcast":6870,"Ġpotatoes":6871,"Ġdub":6872,"Ġsuffer":6873,".--":6874,"Ġot":6875,"eration":6876,"Ġsofa":6877,"ints":6878,"Ġcauses":6879,"refer":6880,"Ġcontest":6881,"shakes":6882,"white":6883,"Ġbackwards":6884,"Ġphilipp":6885,"eless":6886,"Ġmatthew":6887,"Ġreturning":6888,"Ġfrag":6889,"Ġidiot":6890,"Ġmadame":6891,"Ġobserv":6892,"Ġrude":6893,"Ġcheeks":6894,"Ġspark":6895,"Ġadvert":6896,"angers":6897,"Ġryan":6898,"helen":6899,"Ġfailure":6900,"Ġmanagement":6901,"Ġticket":6902,"Ġhurrican":6903,"Ġletting":6904,"atively":6905,"Ġproposed":6906,"Ġdespite":6907,"Ġbarbara":6908,"rac":6909,"omy":6910,"Ġlouise":6911,"kno":6912,"Ġanth":6913,"Ġchart":6914,"Ġunusual":6915,"Ġlately":6916,"Ġseized":6917,"Ġelement":6918,"Ġwip":6919,"Ġcompar":6920,"ulate":6921,"rene":6922,"necess":6923,"Ġsquad":6924,"icide":6925,"Ġrachel":6926,"ivity":6927,"Ġsyd":6928,"screams":6929,"hew":6930,"Ġfever":6931,"Ġtools":6932,"tv":6933,"Ġadmitted":6934,"Ġapplic":6935,"Ġcricket":6936,"Ġexercise":6937,"Ġtickle":6938,"Ġcompleted":6939,"Ġability":6940,"Ġresour":6941,"Ġbrig":6942,"aki":6943,"Ġpurcha":6944,"Ġstronger":6945,"Ġshaking":6946,"Ġconsult":6947,"Ġpushes":6948,"Ġconstruction":6949,"Ġsucceeded":6950,"Ġopt":6951,"Ġparish":6952,"Ġservant":6953,"Ġ1950":6954,"Ġdevil":6955,"annine":6956,"Ġgle":6957,"Ġbriefly":6958,"lies":6959,"Ġcarpet":6960,"bag":6961,"Ġthirteen":6962,"Ġsettlement":6963,"Ġowe":6964,"29":6965,"Ġwicked":6966,"Ġrefle":6967,"Ġroads":6968,"Ġtag":6969,"Ġnuts":6970,"Ġcreatures":6971,"Ġkate":6972,"Ġsomethin":6973,"Ġbushes":6974,"Ġrestaurant":6975,"Ġnaturally":6976,"Ġpha":6977,"still":6978,"igator":6979,"Ġstruggle":6980,"\").":6981,"35":6982,"run":6983,"Ġdollar":6984,"Ġjealous":6985,"inois":6986,"Ġaudience":6987,"Ġthrill":6988,"Ġflu":6989,"Ġfalse":6990,"Ġhydro":6991,"Ġstiff":6992,"Ġsel":6993,"Ġpermission":6994,"mind":6995,"...\"":6996,"Ġexplan":6997,"oses":6998,"Ġcottage":6999,"Ġchim":7000,"Ġtrucks":7001,"whee":7002,"mag":7003,"Ġcolumb":7004,"Ġdocument":7005,"Ġplatform":7006,"Ġgoals":7007,"master":7008,"Ġpope":7009,"cest":7010,"Ġvig":7011,"Ġkorea":7012,"Ġtempt":7013,"aire":7014,"Ġmau":7015,"Ġsleepy":7016,"Ġjersey":7017,"Ġcovers":7018,"Ġslipp":7019,"voice":7020,"Ġlew":7021,"Ġlocation":7022,"Ġsenate":7023,"Ġnons":7024,"Ġpaus":7025,"Ġtrave":7026,"Ġdrinks":7027,"fit":7028,"Ġscale":7029,"Ġexchange":7030,"wha":7031,"Ġpersons":7032,"uing":7033,"Ġturk":7034,"burgh":7035,"cup":7036,"song":7037,"Ġsup":7038,"byebye":7039,"Ġvocalises":7040,"last":7041,"hang":7042,"Ġlux":7043,"Ġstadium":7044,"erous":7045,"aka":7046,"Ġbeds":7047,"Ġchampionships":7048,"Ġbalance":7049,"Ġfc":7050,"Ġillinois":7051,"Ġscreaming":7052,"ani":7053,"Ġsuffering":7054,"pass":7055,"Ġsne":7056,"Ġec":7057,"Ġreward":7058,"Ġshelter":7059,"Ġjohnson":7060,"referring":7061,"Ġpul":7062,"Ġ1984":7063,"Ġresponsibility":7064,"Ġtraditional":7065,"37":7066,"pick":7067,"Ġambulance":7068,"Ġoccupied":7069,"Ġ/":7070,"people":7071,"Ġtum":7072,"Ġgree":7073,"Ġnoisy":7074,"elled":7075,"Ġshh":7076,"Ġincident":7077,"bridge":7078,"Ġsurrounded":7079,"Ġbanks":7080,"Ġgon":7081,"Ġalbert":7082,"hens":7083,"Ġlara":7084,"Ġopera":7085,"Ġellen":7086,"cake":7087,"sur":7088,"Ġfuss":7089,"Ġvoy":7090,"Ġdepends":7091,"Ġlets":7092,"Ġcav":7093,"Ġfollows":7094,"Ġlimited":7095,"Ġlamp":7096,"yum":7097,"babble":7098,"Ġoxford":7099,"Ã¡n":7100,"Ġspy":7101,"Ġdiscover":7102,"Ġsevent":7103,"Ġtribe":7104,"Ġginger":7105,"star":7106,"Ġabo":7107,"Ġscat":7108,"Ġpassion":7109,"Ġassistant":7110,"Ġpine":7111,"Ġmeanwhile":7112,"Ġhelic":7113,"Ġexperiment":7114,"also":7115,"Ġloving":7116,"Ġromantic":7117,"Ġanger":7118,"Ġraining":7119,"Ġsplash":7120,"Ġarticle":7121,"bish":7122,"Ġtheatre":7123,"lines":7124,"Ġchecked":7125,"----\"":7126,"Ġshortly":7127,"Ġshark":7128,"Ġrevol":7129,"dear":7130,"Ġcarolina":7131,"etts":7132,"quick":7133,"Ġcitizens":7134,"Ġinhabitants":7135,"rical":7136,"Ġgiraffe":7137,"Ġbullet":7138,"Ġblew":7139,"Ġheavily":7140,"Ġfacing":7141,"eating":7142,"Ġlois":7143,"Ġuniform":7144,"move":7145,"Ġbea":7146,"Ġashamed":7147,"Ġglory":7148,"psy":7149,"Ġinstitute":7150,"town":7151,"wind":7152,"athan":7153,"icing":7154,"ques":7155,"Ġmickey":7156,"Ġjr":7157,"Ġengines":7158,"Ġdescription":7159,"ben":7160,"lst":7161,"Ġdiscovery":7162,"american":7163,"cook":7164,"Ġpowder":7165,"Ġdies":7166,"rian":7167,"Ġ185":7168,"Ġjungle":7169,"Ġthumb":7170,"Ġjason":7171,"Ġuncom":7172,"standing":7173,"Ġbass":7174,"Ġsales":7175,"Ġgif":7176,"Ġeconomy":7177,"Ġefforts":7178,"Ġroy":7179,"Ġreality":7180,"Ġembarr":7181,"Ġconvin":7182,"lotte":7183,"cken":7184,"Ġstove":7185,"Ġsheet":7186,"Ġframe":7187,"Ġenthus":7188,"Ġnodded":7189,"Ġded":7190,"Ġrolls":7191,"pton":7192,"lots":7193,"Ġconclud":7194,"Ġdistinct":7195,"Ġpays":7196,"Ġhoo":7197,"Ġconstitution":7198,"Ġeag":7199,"whose":7200,"Ġinstance":7201,"Ġ35":7202,"Ġfoolish":7203,"Ġembarrass":7204,"Ġbrid":7205,"calais":7206,"ĠĠĠĠĠĠĠĠĠĠĠĠĠĠĠĠĠĠĠĠĠĠĠĠĠĠĠĠĠĠĠĠ":7207,"Ġwhistle":7208,"Ġneighborhood":7209,"Ġfurniture":7210,"Ġcolored":7211,"Ġsixth":7212,"azz":7213,"Ġsafely":7214,"mate":7215,"Ġfab":7216,"cies":7217,"Ġpolitics":7218,"Ġbegun":7219,"Ġpolish":7220,"chr":7221,"Ġsched":7222,"Ġ1972":7223,"Ġnonsense":7224,"Ġsis":7225,"Ġtray":7226,"Ġfactory":7227,"Ġ1987":7228,"away":7229,"Ġvalu":7230,"Ġcontains":7231,"apers":7232,"197":7233,"necessary":7234,"Ġford":7235,"oli":7236,"Ġnominated":7237,"47":7238,"Ġamongst":7239,"Ġcotton":7240,"ufact":7241,"ae":7242,"Ġwrit":7243,"Ġspeaker":7244,"Ġphotograph":7245,"Ġmmm":7246,"Ġridiculous":7247,"Ġpup":7248,"Ġislam":7249,"Ġanal":7250,"Ġmajority":7251,"Ġcomplain":7252,"eve":7253,"Ġgreg":7254,"Ġclothing":7255,"Ġsnap":7256,"Ġcompared":7257,"both":7258,"Ġlan":7259,"hants":7260,"Ġvain":7261,"Ġaz":7262,"Ġ1986":7263,"gent":7264,"Ġeddie":7265,"steven":7266,"Ġconnection":7267,"aska":7268,"Ġquarters":7269,"mil":7270,"Ġrho":7271,"Ġunits":7272,"Ġjohnny":7273,"Ġmartine":7274,"Ġconsiderable":7275,"Ġcaroline":7276,"Ġstolen":7277,"Ġcu":7278,"top":7279,"Ġyummy":7280,"Ġaband":7281,"Ġprepare":7282,"Ġcereal":7283,"Ġjewish":7284,"Ġutterances":7285,"sound":7286,"Ġsou":7287,"ague":7288,"Ġreturns":7289,"ropri":7290,"Ġprinci":7291,"Ġfirstname":7292,"Ġattached":7293,"eg":7294,"agan":7295,"Ġgeorgia":7296,"Ġinternet":7297,"Ġpossession":7298,"iders":7299,"Ġcovid":7300,"Ġcalcul":7301,"Ġlegend":7302,"Ġreaching":7303,"Ġpeanut":7304,"Ġmanufact":7305,"achus":7306,"Ġpreviously":7307,"Ġaboard":7308,"Ġtay":7309,"osity":7310,"Ġdirt":7311,"Ġreports":7312,"somebody":7313,"Ġinquired":7314,"Ġhealthy":7315,"Ġconfirmed":7316,"ij":7317,"bus":7318,"Ġsydney":7319,"Ġvast":7320,"Ġstopping":7321,"Ġhid":7322,"Ġsauce":7323,"Ġatlantic":7324,"aurs":7325,"Ġbees":7326,"Ġmolly":7327,"reaches":7328,"Ġsouthe":7329,"Ġconfl":7330,"aria":7331,"cca":7332,"Ġaffection":7333,"Ġfasc":7334,"Ġchew":7335,"Ġmunicipal":7336,"hu":7337,"atherine":7338,"Ġancest":7339,"imme":7340,"Ġleon":7341,"Ġbelg":7342,"Ġartists":7343,"Ġwilson":7344,"Ġhits":7345,"Ġdescribe":7346,"Ġcoco":7347,"close":7348,"cia":7349,"Ġbasic":7350,"Ġexhaust":7351,"Ġky":7352,"san":7353,"Ġerr":7354,"Ġdistingu":7355,"Ġdrift":7356,"Ġcupboard":7357,"Ġheaded":7358,"Ġprayer":7359,"find":7360,"Ġpist":7361,"Ġtrap":7362,"wide":7363,"Ġrefe":7364,"âĢĺ":7365,"Ġseasons":7366,"Ġhorror":7367,"Ġbudget":7368,"Ġtel":7369,"Ġbeads":7370,"Ġpersu":7371,"Ġinstantly":7372,"rus":7373,"Ġdur":7374,"Ġfits":7375,"Ġboyfriend":7376,"sylv":7377,"Ġsmiles":7378,"Ġmerely":7379,"Ġvisited":7380,"Ġprompt":7381,"gone":7382,"Ġremove":7383,"Ġtremb":7384,"Ġindependence":7385,"Ġnuclear":7386,"Ġsed":7387,"Ġcrab":7388,"Ġ1981":7389,"Ġasian":7390,"Ġpartly":7391,"Ġheadquarters":7392,"Ġpressed":7393,"Ġlemon":7394,"teacher":7395,"Ġobliged":7396,"Ġclasses":7397,"Ġexplore":7398,"Ġvehicle":7399,"Ġhurricane":7400,"omi":7401,"Ġpoly":7402,"Ġbastard":7403,"Ġpho":7404,"iring":7405,"kind":7406,"Ġdreadful":7407,"Ġbenefit":7408,"Ġaircraft":7409,"Ġcarbon":7410,"works":7411,"Ġpacific":7412,"Ġgates":7413,"Ġexamples":7414,"Ġdrag":7415,"Ġloudly":7416,"grap":7417,"Ġvirt":7418,"Ġcapture":7419,"Ġcakes":7420,"Ġdull":7421,"Ġcleaning":7422,"bby":7423,"Ġanyhow":7424,"Ġlaun":7425,"Ġapproaching":7426,"Ġfid":7427,"Ġstamp":7428,"ros":7429,"Ġindustri":7430,"Ġsupported":7431,"Ġgeography":7432,"ppers":7433,"geous":7434,"kers":7435,"eva":7436,"Ġnana":7437,"Ġki":7438,"iments":7439,"Ġmercy":7440,"Ġpiggy":7441,"Ġservants":7442,"Ġfinancial":7443,"achusetts":7444,"aman":7445,"Ġvon":7446,"mbur":7447,"Ġimage":7448,"Ġtales":7449,"coln":7450,"Ġmemor":7451,"Ġmcc":7452,"Ġasks":7453,"upon":7454,"Ġtournament":7455,"phia":7456,"Ġwherever":7457,"Ġacted":7458,"Ġrocket":7459,"Ġfame":7460,"Ġnaz":7461,"ths":7462,"ffin":7463,"Ġprimary":7464,"Ġretire":7465,"Ġconscious":7466,"Ġsalad":7467,"Ġprior":7468,"Ġapproached":7469,"Ġachieve":7470,"Ġpretending":7471,"tick":7472,"Ġbeep":7473,"Ġhood":7474,"Ġwhoever":7475,"Ġabe":7476,"Ġjolly":7477,"Ġharv":7478,"Ġprogramme":7479,"rets":7480,"Ġmans":7481,"Ġbru":7482,"him":7483,"cts":7484,"Ġstores":7485,"Ġ1976":7486,"Ġprovin":7487,"Ġfare":7488,"Ġcontainer":7489,"Ġactions":7490,"Ġestate":7491,"bad":7492,"Ġbelly":7493,"Ġbillion":7494,"Ġcontribut":7495,"ali":7496,"Ġwishes":7497,"Ġglanced":7498,"Ġdefense":7499,"Ġdisappointed":7500,"Ġemploy":7501,"Ġbend":7502,"Ġecho":7503,"Ġsoil":7504,"Ġloyal":7505,"grunts":7506,"Ġoo":7507,"Ġcycl":7508,"Ġmidnight":7509,"Ġ1979":7510,"Ġconcl":7511,"Ġgranddad":7512,"Ġcuts":7513,"zes":7514,"Ġarmen":7515,"Ġexecutive":7516,"god":7517,"Ġconfused":7518,"Ġinsurance":7519,"Ġfeeding":7520,"Ġbernard":7521,"Ġtissue":7522,"might":7523,"Ġalan":7524,"Ġchristopher":7525,"Ġms":7526,"Ġgeneration":7527,"Ġatm":7528,"estic":7529,"Ġdegrees":7530,"Ġdemonstr":7531,"Ġsung":7532,"Ġretreat":7533,"Ġcommonly":7534,"Ġdraft":7535,"Ġstroke":7536,"Ġpip":7537,"llie":7538,"Ġscored":7539,"Ġcloses":7540,"Ġnoted":7541,"ington":7542,"Ġemotion":7543,"Ġperce":7544,"Ġinjured":7545,"____":7546,"'...":7547,"46":7548,"Ġshy":7549,"Ġpitched":7550,"Ġclient":7551,"rad":7552,"Ġdumb":7553,"Ġexpecting":7554,"Ġaust":7555,"Ġliver":7556,"Ġrepublican":7557,"36":7558,"Ġrud":7559,"unting":7560,"Ġviet":7561,"Ġpuff":7562,"oos":7563,"Ġker":7564,"Ġcattle":7565,"Ġscript":7566,"Ġcrocodile":7567,"Ġunderstanding":7568,"Ġimportance":7569,"Ġunfortunately":7570,"esc":7571,"rily":7572,"bill":7573,"Ġcharlotte":7574,"ugs":7575,"Ġmuslim":7576,"Ġcosts":7577,"Ġmassachusetts":7578,"Ġbunk":7579,"home":7580,"uals":7581,"Ġincome":7582,"rold":7583,"Ġ1985":7584,"Ġrubbish":7585,"Ġinches":7586,"Ġearned":7587,"tape":7588,"unte":7589,"Ġwhilst":7590,"toy":7591,"bring":7592,"Ġacid":7593,"next":7594,"Ġcape":7595,"Ġsimon":7596,"Ġcanton":7597,"dav":7598,"Ġauthorities":7599,"Ġwinner":7600,"Ġlind":7601,"Ġstretched":7602,"Ġbattery":7603,"Ġstable":7604,"Ġcommercial":7605,"Ġgoose":7606,"bee":7607,"Ġgrapes":7608,"eder":7609,"aye":7610,"Ġmichi":7611,"call":7612,"Ġmars":7613,"Ġcarrots":7614,"ophy":7615,"Ġintend":7616,"Ġsco":7617,"Ġpatrick":7618,"Ġalbums":7619,"Ġkansas":7620,"Ġlincoln":7621,"heim":7622,"Ġske":7623,"Ġrunn":7624,"eme":7625,"bbie":7626,"eau":7627,"Ġlett":7628,"Ġhousehold":7629,"lon":7630,"Ġviolence":7631,"Ġthrust":7632,"Ġmobile":7633,"Ġak":7634,"Ġspaghetti":7635,"Ġtrained":7636,"aron":7637,"Ġbeating":7638,"Ġbiscuits":7639,"Ġmast":7640,"ĠĠĠ":7641,"Ġ80":7642,"Ġathlet":7643,"Ġgrateful":7644,"Ġvariety":7645,"Ġeliminated":7646,"inter":7647,"inkle":7648,"Ġattended":7649,"Ġbudd":7650,"Ġscientific":7651,"Ġmild":7652,"Ġhunter":7653,"Ġmummie":7654,"giving":7655,"jwww":7656,"aughters":7657,"Ġzero":7658,"Ġlands":7659,"rans":7660,"Ġblows":7661,"Ġnatives":7662,"Ġfilms":7663,"Ġwebs":7664,"Ġarrival":7665,"Ġpirates":7666,"Ġpregnant":7667,"Ġalongside":7668,"Ġstrawberry":7669,"Ġloft":7670,"Ġfeast":7671,"Ġserving":7672,"Ġrustling":7673,"Ġtort":7674,"Ġonline":7675,"Ġreign":7676,"Ġsax":7677,"gate":7678,"jer":7679,"Ġstations":7680,"Ġtempor":7681,"Ġdesperate":7682,"pre":7683,"Ġpartners":7684,"Ġconcert":7685,"Ġdefeated":7686,"keeper":7687,"Ġillustrations":7688,"Ġrus":7689,"Ġemma":7690,"Ġseparated":7691,"Ġâľ":7692,"Ġ1983":7693,"ok":7694,"Ġvolunte":7695,"Ġaccompan":7696,"Ġsatisfaction":7697,"38":7698,"hl":7699,"Ġ{":7700,"Ġanswers":7701,"Ġwhisper":7702,"Ġremaining":7703,"Ġitems":7704,"pent":7705,"Ġnord":7706,"ellie":7707,"Ġfrancisco":7708,"aid":7709,"lace":7710,"Ġgum":7711,"Ġlung":7712,"Ġnearest":7713,"Ġprospect":7714,"Ġere":7715,"Ġscouts":7716,"Ġminds":7717,"Ġillness":7718,"Ġreferred":7719,"Ġâľ¿":7720,"erted":7721,"Ġtodd":7722,"omer":7723,"Ġtidy":7724,"48":7725,"pse":7726,"Ġbench":7727,"Ġconfident":7728,"Ġdining":7729,"Ġagreement":7730,"careful":7731,"hard":7732,"allas":7733,"Ġdada":7734,"Ġalco":7735,"Ġnicely":7736,"Ġcriminal":7737,"Ġargent":7738,"Ġcryst":7739,"Ġsought":7740,"ira":7741,"Ġawa":7742,"Ġpete":7743,"Ġofficially":7744,"Ġmurdered":7745,"Ġdey":7746,"Ġnowhere":7747,"Ġbelle":7748,"Ġlily":7749,"Ġmissus":7750,"Ġwars":7751,"Ġsara":7752,"sam":7753,"Ġjake":7754,"Ġbore":7755,"--------------------------------":7756,"nonspeech":7757,"Ġbetray":7758,"Ġvessels":7759,"uge":7760,"Ġbuilder":7761,"Ġtroubles":7762,"Ġawarded":7763,"Ġdiet":7764,"stan":7765,"Ġdeeply":7766,"Ġrepresented":7767,"Ġumbre":7768,"Ġstarring":7769,"Ġral":7770,"odes":7771,"Ġdough":7772,"Ġreaction":7773,"Ġguards":7774,"Ġpennsylv":7775,"adel":7776,"Ġnik":7777,"Ġpubl":7778,"Ġfaithful":7779,"Ġresponded":7780,"Ġstew":7781,"Ġmultiple":7782,"alie":7783,"Ġsavage":7784,"90":7785,"Ġding":7786,"eline":7787,"case":7788,"Ġchip":7789,"Ġsneak":7790,"Ġinterrupted":7791,"Ġtoe":7792,"Ġsaving":7793,"eves":7794,"jim":7795,"Ġwanting":7796,"Ġunex":7797,"Ġdefence":7798,"Ġvacation":7799,"Ġnorthe":7800,"Ġdee":7801,"ivered":7802,"Ġhighway":7803,"Ġinnit":7804,"Ġatmosp":7805,"jump":7806,"Ġbreathe":7807,"Ġpand":7808,"Ġpresidential":7809,"Ġbiscuit":7810,"Ġgrandad":7811,"Ġstead":7812,"bear":7813,"eld":7814,"Ġseeds":7815,"pected":7816,"Ġlegisl":7817,"Ġmexican":7818,"Ġscheme":7819,"Ġbicy":7820,"Ġvision":7821,"found":7822,"Ġbomba":7823,"Ġpepper":7824,"jamas":7825,"ocks":7826,"everybody":7827,"Ġlyn":7828,"Ġnumerous":7829,"Ġ1982":7830,"drink":7831,"roy":7832,"rond":7833,"urd":7834,"Ġwhale":7835,"gment":7836,"pu":7837,"Ġ36":7838,"Ġvisitors":7839,"Ġrubber":7840,"ropol":7841,"Ġolympic":7842,"Ġdaughters":7843,"Ġclark":7844,"Ġlewis":7845,"si":7846,"Ġnapp":7847,"Ġpi":7848,"Ġconflict":7849,"anas":7850,"Ġsurgery":7851,"Ġimpl":7852,"Ġfigured":7853,"Ġclosing":7854,"tim":7855,"Ġarch":7856,"gets":7857,"Ġgermans":7858,"Ġsolemn":7859,"Ġthoroughly":7860,"gues":7861,"Ġnearby":7862,"Ġstephen":7863,"continues":7864,"Ġpunishment":7865,"ili":7866,"Ġmall":7867,"Ġpennsylvania":7868,"nold":7869,"Ġdrawer":7870,"Ġexpedition":7871,"mers":7872,"gger":7873,"Ġfuneral":7874,"Ġconcern":7875,"pres":7876,"intend":7877,"Ġgrim":7878,"Ġsausage":7879,"Ġvaluable":7880,"imum":7881,"Ġnorthwest":7882,"Ġproducts":7883,"Ġpaused":7884,"Ġgabri":7885,"Ġhelicopter":7886,"Ġsticker":7887,"Ġ1974":7888,"Ġconc":7889,"Ġdrill":7890,"Ġoccasionally":7891,"Ġdisci":7892,"Ġtune":7893,"Ġfi":7894,"Ġthrone":7895,"Ġcounting":7896,"39":7897,"zed":7898,"Ġliz":7899,"Ġ90":7900,"Ġfisher":7901,"Ġrepeat":7902,"Ġstrict":7903,"Ġpeak":7904,"Ġfled":7905,"Ġtouching":7906,"Ġdefeat":7907,"Ġdeputy":7908,"Ġfires":7909,"Ġliterature":7910,"lley":7911,"Ġbib":7912,"Ġpiss":7913,"Ġamuse":7914,"before":7915,"Ġukrain":7916,"pher":7917,"Ġsie":7918,"Ġcoloring":7919,"Ġmcdonalds":7920,"imately":7921,"Ġdonkey":7922,"nine":7923,"Ġwoof":7924,"Ġrh":7925,"Ġcheers":7926,"Ġmichigan":7927,"duck":7928,"Ġski":7929,"Ġdressing":7930,"remony":7931,"Ġanxiety":7932,"Ġrecommend":7933,"lan":7934,"moo":7935,"Ġstated":7936,"Ġregions":7937,"Ġgrowth":7938,"aah":7939,"Ġsock":7940,"Ġgrat":7941,"Ġacts":7942,"Ġsailing":7943,"Ġbelonged":7944,"Ġbarry":7945,"Ġforbid":7946,"Ġcapable":7947,"Ġfeathers":7948,"Ġtool":7949,"Ġimpress":7950,"Ġceremony":7951,"Ġinfant":7952,"Ġnas":7953,"Ġ1978":7954,"Ġsniff":7955,"hon":7956,"Ġtide":7957,"Ġmental":7958,"Ġportion":7959,"Ġaustrian":7960,"Ġbenn":7961,"Ġintense":7962,"Ġfee":7963,"mrs":7964,"isse":7965,"Ġbruce":7966,"culiar":7967,"Ġsher":7968,"Ġlaunch":7969,"hio":7970,"once":7971,"Ġ1968":7972,"probably":7973,"Ġseal":7974,"Ġ45":7975,"Ġelephants":7976,"âĨ":7977,"Ġclap":7978,"Ġuseless":7979,"Ġdavis":7980,"Ġsurvive":7981,"pool":7982,"Ġcommitted":7983,"Ġexplanation":7984,"Ġawww":7985,"Ġlas":7986,"ifer":7987,"Ġbaker":7988,"Ġblaz":7989,"Ġedition":7990,"Ġextent":7991,"Ġactivities":7992,"Ġelements":7993,"Ġspani":7994,"Ġtack":7995,"Ġthief":7996,"Ġfriendship":7997,"Ġbearing":7998,"Ġberlin":7999,"acious":8000,"leton":8001,"Ġthirsty":8002,"Ġ1977":8003,"Ġvictoria":8004,"Ġchimney":8005,"Ġbrace":8006,"pig":8007,"Ġmand":8008,"Ġpeculiar":8009,"Ġwins":8010,"Ġstaring":8011,"Ġchurches":8012,"Ġhollow":8013,"Ġsyn":8014,"Ġsticking":8015,"Ġscottish":8016,"Ġcharming":8017,"truck":8018,"ndy":8019,"Ġtremend":8020,"Ġdelightful":8021,"Ġhonestly":8022,"Ġkong":8023,"Ġabd":8024,"Ġanimated":8025,"Ġleslie":8026,"Ġgradually":8027,"gai":8028,"Ġkevin":8029,"Ġcleared":8030,"Ġdistricts":8031,"stay":8032,"Ġintelligence":8033,"woman":8034,"Ġtrace":8035,"Ġ70":8036,"Ġ1975":8037,"Ġbells":8038,"Ġbour":8039,"Ġashore":8040,"Ġglob":8041,"Ġpolite":8042,"Ġimpact":8043,"Ġbasis":8044,"Ġtickets":8045,"Ġlip":8046,"asses":8047,"Ġlevels":8048,"Ġfuel":8049,"onge":8050,"owa":8051,"Ġintention":8052,"Ġvolcan":8053,"Ġprograms":8054,"lap":8055,"izz":8056,"Ġfrances":8057,"Ġflow":8058,"Ġrecei":8059,"whispering":8060,"Ġpercy":8061,"Ġearl":8062,"eed":8063,"Ã´":8064,"ibly":8065,"Ġmiserable":8066,"mummie":8067,"Ġspending":8068,"Ġdiana":8069,"Ġtun":8070,"Ġcin":8071,"Ġlun":8072,"Ġclare":8073,"Ġcler":8074,"Ġ1969":8075,"Ġdistribut":8076,"Ġspar":8077,"Ġsailed":8078,"Ġrepresentatives":8079,"Ġtak":8080,"Ġnasty":8081,"rah":8082,"mor":8083,"inea":8084,"Ġshots":8085,"Ġvillages":8086,"Ġattacks":8087,"Ġinstrument":8088,"places":8089,"Ġeditor":8090,"Ġhired":8091,"Ġunhappy":8092,"Ġswept":8093,"Ġcharged":8094,"Ġrefers":8095,"Ġargument":8096,"Ġorchest":8097,"Ġdeserve":8098,"Ġsunny":8099,"Ġjord":8100,"Ġ1973":8101,"Ġorganis":8102,"eness":8103,"Ġscrap":8104,"Ġflesh":8105,"Ġarrive":8106,"Ġellie":8107,"Ġcomposed":8108,"made":8109,"Ġconsist":8110,"Ġlawn":8111,"Ġchop":8112,"Ġsacred":8113,"swe":8114,"olk":8115,"Ġchallenge":8116,"Ġroo":8117,"Ġtrot":8118,"Ġimit":8119,"Ġais":8120,"Ġsteep":8121,"Ġlover":8122,"Ġigno":8123,"mates":8124,"piece":8125,"Ġdallas":8126,"cker":8127,"Ġkaren":8128,"Ġclaus":8129,"pless":8130,"Ġshir":8131,"Ġdraws":8132,"build":8133,"Ġdart":8134,"vet":8135,"Ġharbor":8136,"xy":8137,"Ġult":8138,"kyo":8139,"Ġbrazilian":8140,"Ġmerchant":8141,"force":8142,"Ġrattle":8143,"Ġlaunched":8144,"dan":8145,"Ġhee":8146,"Ġliberty":8147,"Ġkenneth":8148,"49":8149,"lk":8150,"Ġbeef":8151,"Ġestim":8152,"Ġstudying":8153,"mble":8154,"uls":8155,"Ġrobinson":8156,"Ġthreatened":8157,"Ġregarded":8158,"ĠâĢľâĢĺ":8159,"Ġtouches":8160,"Ġextended":8161,"Ġinvestigation":8162,"kim":8163,"life":8164,"Ġkelly":8165,"Ġamanda":8166,"Ġjoint":8167,"Ġbeard":8168,"Ġgran":8169,"Ã¦":8170,"Ġlarry":8171,"Ġrecovered":8172,"Ġnoon":8173,"Ġfoundation":8174,"Ġhopes":8175,"Ġenjoying":8176,"Ġviolent":8177,"Ġka":8178,"Ġlawrence":8179,"Ġoxy":8180,"Ġloire":8181,"Ġgrade":8182,"Ġsob":8183,"Ġkicked":8184,"Ġpanc":8185,"Ġchances":8186,"Ġpatients":8187,"agger":8188,"Ġlightning":8189,"Ġsilk":8190,"Ġengineer":8191}